{"version":"1.0","truncation":null,"padding":null,"added_tokens":[{"id":0,"special":true,"content":"[PAD]","single_word":false,"lstrip":false,"rstrip":false,"normalized":false},{"id":1,"special":true,"content":"[UNK]","single_word":false,"lstrip":false,"rstrip":false,"normalized":false},{"id":2,"special":true,"content":"[CLS]","single_word":false,"lstrip":false,"rstrip":false,"normalized":false},{"id":3,"special":true,"content":"[SEP]","single_word":false,"lstrip":false,"rstrip":false,"normalized":false},{"id":4,"special":true,"content":"[MASK]","single_word":false,"lstrip":false,"rstrip":false,"normalized":false}],"normalizer":{"type":"BertNormalizer","clean_text":true,"handle_chinese_chars":true,"strip_accents":null,"lowercase":false},"pre_tokenizer":{"type":"BertPreTokenizer"},"post_processor":{"type":"TemplateProcessing","single":[{"SpecialToken":{"id":"[CLS]","type_id":0}},{"Sequence":{"id":"A","type_id":0}},{"SpecialToken":{"id":"[SEP]","type_id":0}}],"pair":[{"SpecialToken":{"id":"[CLS]","type_id":0}},{"Sequence":{"id":"A","type_id":0}},{"SpecialToken":{"id":"[SEP]","type_id":0}},{"Sequence":{"id":"B","type_id":1}},{"SpecialToken":{"id":"[SEP]","type_id":1}}],"special_tokens":{"[CLS]":{"id":"[CLS]","ids":[2],"tokens":["[CLS]"]},"[SEP]":{"id":"[SEP]","ids":[3],"tokens":["[SEP]"]}}},"decoder":{"type":"WordPiece","prefix":"##","cleanup":true},"model":{"type":"WordPiece","unk_token":"[UNK]","continuing_subword_prefix":"##","max_input_chars_per_word":100,"vocab":{"[PAD]":0,"[UNK]":1,"[CLS]":2,"[SEP]":3,"[MASK]":4,"!":5,"\"":6,"#":7,"$":8,"%":9,"&":10,"'":11,"(":12,")":13,"*":14,"+":15,",":16,"-":17,".":18,"/":19,"0":20,"1":21,"2":22,"3":23,"4":24,"5":25,"6":26,"7":27,"8":28,"9":29,":":30,";":31,"<":32,"=":33,">":34,"?":35,"@":36,"A":37,"B":38,"C":39,"D":40,"E":41,"F":42,"G":43,"H":44,"I":45,"J":46,"K":47,"L":48,"M":49,"N":50,"O":51,"P":52,"Q":53,"R":54,"S":55,"T":56,"U":57,"V":58,"W":59,"X":60,"Y":61,"Z":62,"[":63,"\\":64,"]":65,"^":66,"_":67,"`":68,"a":69,"b":70,"c":71,"d":72,"e":73,"f":74,"g":75,"h":76,"i":77,"j":78,"k":79,"l":80,"m":81,"n":82,"o":83,"p":84,"q":85,"r":86,"s":87,"t":88,"u":89,"v":90,"w":91,"x":92,"y":93,"z":94,"{":95,"|":96,"}":97,"~":98,"§":99,"©":100,"®":101,"°":102,"±":103,"²":104,"³":105,"´":106,"·":107,"¹":108,"×":109,"ä":110,"é":111,"ö":112,"÷":113,"̈":114,"̣":115,"̥":116,"α":117,"β":118,"μ":119,"а":120,"б":121,"в":122,"г":123,"е":124,"з":125,"и":126,"к":127,"л":128,"н":129,"о":130,"п":131,"р":132,"с":133,"т":134,"ы":135,"ь":136,"я":137,"๑":138,"ᄒ":139,"ᆞ":140,"–":141,"—":142,"―":143,"‘":144,"’":145,"“":146,"”":147,"•":148,"․":149,"‥":150,"…":151,"‧":152,"′":153,"″":154,"※":155,"‼":156,"₁":157,"₂":158,"₩":159,"℃":160,"ℓ":161,"™":162,"Ⅰ":163,"Ⅱ":164,"Ⅲ":165,"Ⅳ":166,"Ⅴ":167,"↑":168,"→":169,"↓":170,"↔":171,"↘":172,"↙":173,"⇒":174,"∙":175,"∼":176,"≪":177,"≫":178,"⊙":179,"⋅":180,"①":181,"②":182,"③":183,"④":184,"⑤":185,"⑥":186,"⑦":187,"⑧":188,"⑨":189,"⑴":190,"⑵":191,"⑶":192,"⑷":193,"ⓐ":194,"ⓑ":195,"ⓒ":196,"─":197,"━":198,"│":199,"┃":200,"└":201,"├":202,"■":203,"□":204,"▣":205,"▪":206,"▫":207,"▲":208,"△":209,"▶":210,"▷":211,"▼":212,"▽":213,"◀":214,"◆":215,"◇":216,"◈":217,"○":218,"◎":219,"●":220,"★":221,"☆":222,"☎":223,"☏":224,"☕":225,"☞":226,"☺":227,"♀":228,"♂":229,"♠":230,"♡":231,"♣":232,"♥":233,"✅":234,"✌":235,"✔":236,"✨":237,"❗":238,"❣":239,"❤":240,"➡":241,"⠀":242,"⭐":243,"。":244,"〃":245,"〈":246,"〉":247,"《":248,"》":249,"「":250,"」":251,"『":252,"』":253,"【":254,"】":255,"〓":256,"〔":257,"〕":258,"〰":259,"い":260,"か":261,"て":262,"に":263,"の":264,"り":265,"る":266,"ん":267,"ニ":268,"ン":269,"・":270,"ー":271,"ㄱ":272,"ㄲ":273,"ㄴ":274,"ㄷ":275,"ㄸ":276,"ㄹ":277,"ㅁ":278,"ㅂ":279,"ㅃ":280,"ㅅ":281,"ㅆ":282,"ㅇ":283,"ㅈ":284,"ㅉ":285,"ㅊ":286,"ㅋ":287,"ㅌ":288,"ㅍ":289,"ㅎ":290,"ㅏ":291,"ㅐ":292,"ㅑ":293,"ㅓ":294,"ㅔ":295,"ㅕ":296,"ㅗ":297,"ㅛ":298,"ㅜ":299,"ㅠ":300,"ㅡ":301,"ㅣ":302,"ㅤ":303,"ㆍ":304,"㈎":305,"㈏":306,"㈐":307,"㈑":308,"㈔":309,"㈜":310,"㉠":311,"㉡":312,"㉢":313,"㉣":314,"㉮":315,"㉯":316,"㉰":317,"㎉":318,"㎍":319,"㎎":320,"㎏":321,"㎒":322,"㎓":323,"㎖":324,"㎘":325,"㎚":326,"㎛":327,"㎜":328,"㎝":329,"㎞":330,"㎡":331,"㎢":332,"㎥":333,"㎸":334,"㎾":335,"㎿":336,"㏃":337,"㏄":338,"㏈":339,"㏊":340,"一":341,"丁":342,"七":343,"丈":344,"三":345,"上":346,"下":347,"不":348,"丑":349,"且":350,"世":351,"丘":352,"丙":353,"丞":354,"中":355,"丸":356,"丹":357,"主":358,"乃":359,"久":360,"之":361,"乎":362,"乘":363,"乙":364,"九":365,"也":366,"乡":367,"乳":368,"乾":369,"亂":370,"了":371,"事":372,"二":373,"于":374,"云":375,"互":376,"五":377,"井":378,"亞":379,"亡":380,"交":381,"亥":382,"亦":383,"亨":384,"享":385,"京":386,"亭":387,"亮":388,"人":389,"仁":390,"今":391,"介":392,"仕":393,"他":394,"付":395,"仙":396,"代":397,"令":398,"以":399,"仰":400,"仲":401,"件":402,"任":403,"企":404,"伊":405,"伏":406,"伐":407,"休":408,"会":409,"伯":410,"伸":411,"似":412,"伽":413,"但":414,"位":415,"低":416,"住":417,"佐":418,"何":419,"余":420,"佛":421,"作":422,"佳":423,"使":424,"來":425,"例":426,"侍":427,"供":428,"依":429,"侯":430,"侵":431,"便":432,"係":433,"俊":434,"俗":435,"保":436,"信":437,"修":438,"俱":439,"倂":440,"倉":441,"個":442,"倍":443,"倒":444,"候":445,"借":446,"値":447,"倫":448,"倭":449,"假":450,"偉":451,"偏":452,"停":453,"健":454,"側":455,"偶":456,"傅":457,"備":458,"傳":459,"債":460,"傷":461,"傾":462,"像":463,"僕":464,"僞":465,"僧":466,"價":467,"儀":468,"億":469,"儒":470,"償":471,"優":472,"允":473,"元":474,"兄":475,"充":476,"兆":477,"先":478,"光":479,"克":480,"免":481,"兒":482,"入":483,"內":484,"全":485,"兩":486,"兪":487,"八":488,"公":489,"六":490,"兮":491,"共":492,"兵":493,"其":494,"具":495,"典":496,"兼":497,"冊":498,"再":499,"冠":500,"冥":501,"冬":502,"凉":503,"凡":504,"凶":505,"出":506,"刀":507,"分":508,"切":509,"刊":510,"刑":511,"列":512,"初":513,"判":514,"別":515,"利":516,"到":517,"制":518,"券":519,"刺":520,"刻":521,"則":522,"前":523,"剛":524,"副":525,"割":526,"創":527,"劃":528,"劇":529,"劉":530,"劍":531,"力":532,"功":533,"加":534,"助":535,"勇":536,"勒":537,"動":538,"務":539,"勝":540,"勞":541,"勢":542,"勤":543,"勳":544,"勸":545,"勿":546,"包":547,"化":548,"北":549,"匠":550,"區":551,"十":552,"千":553,"升":554,"午":555,"半":556,"卑":557,"卒":558,"卓":559,"協":560,"南":561,"博":562,"卜":563,"占":564,"卦":565,"卯":566,"印":567,"危":568,"却":569,"卷":570,"卽":571,"卿":572,"厚":573,"原":574,"去":575,"參":576,"又":577,"及":578,"友":579,"反":580,"叔":581,"取":582,"受":583,"叢":584,"口":585,"古":586,"句":587,"只":588,"召":589,"可":590,"台":591,"史":592,"右":593,"司":594,"各":595,"合":596,"吉":597,"同":598,"名":599,"后":600,"吏":601,"向":602,"君":603,"否":604,"含":605,"吳":606,"吾":607,"呂":608,"告":609,"周":610,"呪":611,"味":612,"呼":613,"命":614,"和":615,"咸":616,"哀":617,"品":618,"哈":619,"哉":620,"員":621,"哭":622,"哲":623,"唐":624,"唯":625,"唱":626,"商":627,"問":628,"啓":629,"善":630,"喜":631,"喪":632,"單":633,"嘉":634,"嘗":635,"器":636,"嚴":637,"四":638,"回":639,"因":640,"固":641,"国":642,"圈":643,"國":644,"圍":645,"園":646,"圓":647,"圖":648,"團":649,"土":650,"在":651,"圭":652,"地":653,"址":654,"坂":655,"均":656,"坊":657,"坐":658,"坡":659,"坤":660,"坪":661,"垂":662,"型":663,"城":664,"域":665,"執":666,"培":667,"基":668,"堂":669,"堅":670,"堯":671,"報":672,"場":673,"塔":674,"塚":675,"塵":676,"境":677,"墓":678,"增":679,"墨":680,"墳":681,"壁":682,"壇":683,"壓":684,"壤":685,"士":686,"壬":687,"壯":688,"壽":689,"夏":690,"夕":691,"外":692,"多":693,"夜":694,"夢":695,"大":696,"天":697,"太":698,"夫":699,"央":700,"失":701,"夷":702,"奇":703,"奈":704,"奉":705,"奎":706,"奏":707,"契":708,"奪":709,"女":710,"奴":711,"好":712,"如":713,"妃":714,"妄":715,"妓":716,"妙":717,"妻":718,"始":719,"姑":720,"姓":721,"委":722,"姜":723,"姬":724,"威":725,"婆":726,"婚":727,"婢":728,"婦":729,"子":730,"孔":731,"字":732,"存":733,"孝":734,"孟":735,"季":736,"孤":737,"学":738,"孫":739,"學":740,"宇":741,"守":742,"安":743,"宋":744,"完":745,"宏":746,"宗":747,"官":748,"宙":749,"定":750,"宜":751,"客":752,"宣":753,"室":754,"宮":755,"宰":756,"害":757,"宴":758,"家":759,"容":760,"宿":761,"寂":762,"寄":763,"寅":764,"密":765,"富":766,"寒":767,"察":768,"寡":769,"實":770,"寧":771,"審":772,"寫":773,"寬":774,"寶":775,"寸":776,"寺":777,"封":778,"射":779,"將":780,"專":781,"尉":782,"尊":783,"尋":784,"對":785,"導":786,"小":787,"少":788,"尖":789,"尙":790,"就":791,"尹":792,"尺":793,"尼":794,"尾":795,"局":796,"居":797,"屈":798,"屋":799,"展":800,"層":801,"履":802,"屬":803,"屯":804,"山":805,"岐":806,"岡":807,"岩":808,"岳":809,"岸":810,"峯":811,"峰":812,"峴":813,"島":814,"崇":815,"崎":816,"崔":817,"嶺":818,"巖":819,"川":820,"州":821,"巡":822,"工":823,"左":824,"巨":825,"巫":826,"差":827,"己":828,"已":829,"巳":830,"巴":831,"市":832,"布":833,"希":834,"帖":835,"帝":836,"帥":837,"師":838,"席":839,"帳":840,"帶":841,"常":842,"幕":843,"干":844,"平":845,"年":846,"幸":847,"幹":848,"幻":849,"幼":850,"幽":851,"幾":852,"庄":853,"床":854,"序":855,"底":856,"店":857,"庚":858,"府":859,"度":860,"座":861,"庫":862,"庭":863,"庵":864,"庶":865,"康":866,"庸":867,"廉":868,"廟":869,"廢":870,"廣":871,"廳":872,"延":873,"廷":874,"建":875,"弊":876,"式":877,"弓":878,"弔":879,"引":880,"弗":881,"弘":882,"弟":883,"弱":884,"張":885,"强":886,"弼":887,"彈":888,"彌":889,"形":890,"彦":891,"彩":892,"彭":893,"影":894,"役":895,"彼":896,"往":897,"征":898,"待":899,"律":900,"後":901,"徐":902,"徒":903,"得":904,"從":905,"御":906,"復":907,"微":908,"徵":909,"德":910,"徹":911,"徽":912,"心":913,"必":914,"忌":915,"忍":916,"志":917,"忘":918,"忠":919,"快":920,"念":921,"忽":922,"怒":923,"思":924,"急":925,"性":926,"怨":927,"怪":928,"恐":929,"恒":930,"恥":931,"恨":932,"恩":933,"恭":934,"息":935,"悅":936,"悟":937,"患":938,"悲":939,"情":940,"惑":941,"惟":942,"惠":943,"惡":944,"惱":945,"想":946,"愁":947,"意":948,"愚":949,"愛":950,"感":951,"愼":952,"慈":953,"態":954,"慕":955,"慣":956,"慧":957,"慮":958,"慶":959,"慾":960,"憂":961,"憲":962,"應":963,"懷":964,"戊":965,"戌":966,"成":967,"我":968,"戒":969,"或":970,"戰":971,"戱":972,"戴":973,"戶":974,"房":975,"所":976,"手":977,"才":978,"打":979,"扶":980,"批":981,"承":982,"技":983,"投":984,"抗":985,"折":986,"抵":987,"拒":988,"拘":989,"招":990,"拜":991,"括":992,"持":993,"指":994,"振":995,"捕":996,"授":997,"掌":998,"排":999,"採":1000,"探":1001,"接":1002,"推":1003,"提":1004,"揚":1005,"換":1006,"揭":1007,"援":1008,"損":1009,"摠":1010,"摩":1011,"撫":1012,"播":1013,"撰":1014,"擇":1015,"擊":1016,"操":1017,"擔":1018,"據":1019,"擧":1020,"擬":1021,"攝":1022,"支":1023,"收":1024,"改":1025,"攻":1026,"放":1027,"政":1028,"故":1029,"效":1030,"敍":1031,"敎":1032,"敏":1033,"救":1034,"敗":1035,"敢":1036,"散":1037,"敦":1038,"敬":1039,"整":1040,"敵":1041,"數":1042,"文":1043,"斗":1044,"料":1045,"斥":1046,"斬":1047,"斯":1048,"新":1049,"斷":1050,"方":1051,"於":1052,"施":1053,"旅":1054,"族":1055,"旗":1056,"旣":1057,"日":1058,"旨":1059,"早":1060,"旭":1061,"昆":1062,"昇":1063,"昌":1064,"明":1065,"易":1066,"昔":1067,"星":1068,"映":1069,"春":1070,"昭":1071,"是":1072,"時":1073,"晉":1074,"晋":1075,"晦":1076,"晩":1077,"普":1078,"景":1079,"智":1080,"暗":1081,"暴":1082,"曆":1083,"曉":1084,"曰":1085,"曲":1086,"更":1087,"書":1088,"曹":1089,"曺":1090,"曾":1091,"替":1092,"最":1093,"會":1094,"月":1095,"有":1096,"朋":1097,"服":1098,"朔":1099,"望":1100,"朝":1101,"期":1102,"木":1103,"未":1104,"末":1105,"本":1106,"朱":1107,"朴":1108,"李":1109,"材":1110,"村":1111,"杖":1112,"杜":1113,"束":1114,"杭":1115,"東":1116,"松":1117,"板":1118,"林":1119,"果":1120,"枝":1121,"某":1122,"染":1123,"柔":1124,"柱":1125,"柳":1126,"査":1127,"校":1128,"株":1129,"核":1130,"根":1131,"格":1132,"桂":1133,"桃":1134,"案":1135,"桑":1136,"桓":1137,"梁":1138,"梅":1139,"條":1140,"梵":1141,"棄":1142,"棟":1143,"森":1144,"植":1145,"楊":1146,"楚":1147,"業":1148,"極":1149,"榮":1150,"構":1151,"槪":1152,"樂":1153,"樓":1154,"標":1155,"樞":1156,"模":1157,"樣":1158,"樹":1159,"橋":1160,"機":1161,"橫":1162,"檀":1163,"檢":1164,"權":1165,"次":1166,"欲":1167,"欺":1168,"欽":1169,"款":1170,"歌":1171,"歐":1172,"止":1173,"正":1174,"此":1175,"步":1176,"武":1177,"歲":1178,"歷":1179,"歸":1180,"死":1181,"殊":1182,"殘":1183,"段":1184,"殷":1185,"殺":1186,"殿":1187,"毅":1188,"母":1189,"每":1190,"毒":1191,"比":1192,"毛":1193,"氏":1194,"民":1195,"氣":1196,"水":1197,"氷":1198,"永":1199,"求":1200,"汗":1201,"汝":1202,"江":1203,"池":1204,"決":1205,"沈":1206,"沒":1207,"沖":1208,"沙":1209,"河":1210,"油":1211,"治":1212,"沼":1213,"況":1214,"泉":1215,"法":1216,"波":1217,"注":1218,"泰":1219,"泳":1220,"洋":1221,"洗":1222,"洙":1223,"洛":1224,"洞":1225,"津":1226,"洪":1227,"洲":1228,"活":1229,"派":1230,"流":1231,"浙":1232,"浦":1233,"浩":1234,"浪":1235,"浮":1236,"海":1237,"消":1238,"涉":1239,"淑":1240,"淡":1241,"淨":1242,"淫":1243,"淮":1244,"深":1245,"淳":1246,"淵":1247,"混":1248,"淸":1249,"減":1250,"渡":1251,"測":1252,"港":1253,"游":1254,"渾":1255,"湖":1256,"湯":1257,"源":1258,"準":1259,"溝":1260,"溪":1261,"溫":1262,"滅":1263,"滿":1264,"漁":1265,"漏":1266,"演":1267,"漢":1268,"漸":1269,"潔":1270,"潘":1271,"潛":1272,"潤":1273,"潭":1274,"潮":1275,"澤":1276,"濟":1277,"濤":1278,"濱":1279,"瀋":1280,"灣":1281,"火":1282,"災":1283,"炎":1284,"炳":1285,"烈":1286,"烏":1287,"焉":1288,"無":1289,"然":1290,"煙":1291,"煥":1292,"照":1293,"煩":1294,"熊":1295,"熙":1296,"熟":1297,"熱":1298,"燈":1299,"燒":1300,"燕":1301,"營":1302,"燮":1303,"爭":1304,"爲":1305,"爵":1306,"父":1307,"爾":1308,"片":1309,"版":1310,"牌":1311,"牙":1312,"牛":1313,"牧":1314,"物":1315,"特":1316,"犬":1317,"犯":1318,"狀":1319,"狂":1320,"狗":1321,"猶":1322,"獄":1323,"獨":1324,"獸":1325,"獻":1326,"玄":1327,"率":1328,"玉":1329,"王":1330,"珍":1331,"珠":1332,"班":1333,"現":1334,"球":1335,"理":1336,"琴":1337,"瑞":1338,"環":1339,"甘":1340,"甚":1341,"生":1342,"産":1343,"用":1344,"甫":1345,"田":1346,"由":1347,"甲":1348,"申":1349,"男":1350,"町":1351,"界":1352,"留":1353,"略":1354,"番":1355,"異":1356,"畵":1357,"當":1358,"畿":1359,"疆":1360,"疏":1361,"疑":1362,"疾":1363,"病":1364,"症":1365,"痛":1366,"療":1367,"癸":1368,"登":1369,"發":1370,"白":1371,"百":1372,"的":1373,"皆":1374,"皇":1375,"皮":1376,"益":1377,"盛":1378,"盜":1379,"盟":1380,"盡":1381,"監":1382,"盤":1383,"盧":1384,"目":1385,"直":1386,"相":1387,"省":1388,"眉":1389,"看":1390,"眞":1391,"真":1392,"眠":1393,"眼":1394,"着":1395,"督":1396,"矢":1397,"矣":1398,"知":1399,"短":1400,"石":1401,"砂":1402,"砲":1403,"破":1404,"硏":1405,"碑":1406,"碧":1407,"碩":1408,"確":1409,"磁":1410,"磨":1411,"示":1412,"社":1413,"祀":1414,"祐":1415,"祖":1416,"祝":1417,"神":1418,"祠":1419,"祥":1420,"票":1421,"祭":1422,"祿":1423,"禁":1424,"禍":1425,"福":1426,"禪":1427,"禮":1428,"禹":1429,"秀":1430,"私":1431,"秉":1432,"秋":1433,"科":1434,"秘":1435,"租":1436,"秦":1437,"秩":1438,"移":1439,"稅":1440,"程":1441,"種":1442,"稱":1443,"稷":1444,"稻":1445,"稿":1446,"穀":1447,"穆":1448,"積":1449,"穴":1450,"究":1451,"空":1452,"突":1453,"窓":1454,"窮":1455,"立":1456,"章":1457,"童":1458,"端":1459,"競":1460,"竹":1461,"笑":1462,"符":1463,"第":1464,"筆":1465,"等":1466,"答":1467,"策":1468,"箕":1469,"算":1470,"管":1471,"節":1472,"範":1473,"篇":1474,"築":1475,"簡":1476,"簿":1477,"籍":1478,"米":1479,"粉":1480,"精":1481,"系":1482,"紀":1483,"約":1484,"紅":1485,"紋":1486,"納":1487,"純":1488,"紙":1489,"級":1490,"素":1491,"紫":1492,"細":1493,"紹":1494,"終":1495,"組":1496,"結":1497,"給":1498,"統":1499,"絲":1500,"絶":1501,"經":1502,"綠":1503,"維":1504,"綱":1505,"網":1506,"緊":1507,"緖":1508,"線":1509,"緣":1510,"編":1511,"縣":1512,"總":1513,"織":1514,"繩":1515,"繼":1516,"續":1517,"缺":1518,"罪":1519,"置":1520,"罰":1521,"署":1522,"羅":1523,"羊":1524,"美":1525,"群":1526,"義":1527,"羽":1528,"翁":1529,"翊":1530,"習":1531,"翰":1532,"翼":1533,"老":1534,"考":1535,"者":1536,"而":1537,"耕":1538,"耳":1539,"耶":1540,"聖":1541,"聚":1542,"聞":1543,"聯":1544,"聲":1545,"職":1546,"聽":1547,"肅":1548,"肉":1549,"肝":1550,"肥":1551,"育":1552,"背":1553,"胎":1554,"胡":1555,"能":1556,"脈":1557,"脚":1558,"脫":1559,"腦":1560,"腸":1561,"腹":1562,"臟":1563,"臣":1564,"臥":1565,"臨":1566,"自":1567,"至":1568,"致":1569,"臺":1570,"與":1571,"興":1572,"舊":1573,"舌":1574,"舍":1575,"舜":1576,"舞":1577,"舟":1578,"航":1579,"般":1580,"舶":1581,"船":1582,"艦":1583,"良":1584,"色":1585,"芝":1586,"花":1587,"芳":1588,"苑":1589,"若":1590,"苦":1591,"英":1592,"茂":1593,"范":1594,"茶":1595,"草":1596,"荊":1597,"荒":1598,"荷":1599,"莊":1600,"莫":1601,"菅":1602,"菊":1603,"菜":1604,"菩":1605,"華":1606,"菴":1607,"萬":1608,"落":1609,"葉":1610,"著":1611,"葛":1612,"董":1613,"葬":1614,"蒙":1615,"蒼":1616,"蓋":1617,"蓮":1618,"蔡":1619,"蔣":1620,"蕭":1621,"薄":1622,"薛":1623,"薦":1624,"薩":1625,"藏":1626,"藝":1627,"藤":1628,"藥":1629,"藩":1630,"蘇":1631,"蘭":1632,"虎":1633,"處":1634,"虛":1635,"虞":1636,"號":1637,"蛇":1638,"蜀":1639,"融":1640,"血":1641,"衆":1642,"行":1643,"衍":1644,"術":1645,"街":1646,"衛":1647,"衡":1648,"衣":1649,"表":1650,"衰":1651,"袁":1652,"被":1653,"裁":1654,"裏":1655,"裕":1656,"補":1657,"裝":1658,"裵":1659,"製":1660,"複":1661,"襄":1662,"襲":1663,"西":1664,"要":1665,"覆":1666,"覇":1667,"見":1668,"規":1669,"視":1670,"親":1671,"覺":1672,"覽":1673,"觀":1674,"角":1675,"解":1676,"觸":1677,"言":1678,"計":1679,"討":1680,"訓":1681,"託":1682,"記":1683,"訟":1684,"訥":1685,"訪":1686,"設":1687,"許":1688,"訴":1689,"註":1690,"詐":1691,"評":1692,"詞":1693,"試":1694,"詩":1695,"話":1696,"誌":1697,"認":1698,"語":1699,"誠":1700,"誤":1701,"說":1702,"誰":1703,"課":1704,"調":1705,"談":1706,"請":1707,"論":1708,"諦":1709,"諫":1710,"諭":1711,"諸":1712,"謀":1713,"謂":1714,"謙":1715,"講":1716,"謝":1717,"證":1718,"識":1719,"譜":1720,"警":1721,"譯":1722,"議":1723,"護":1724,"讀":1725,"變":1726,"讓":1727,"谷":1728,"豆":1729,"豈":1730,"豊":1731,"象":1732,"豪":1733,"豫":1734,"貞":1735,"負":1736,"財":1737,"貢":1738,"貧":1739,"貨":1740,"貪":1741,"貫":1742,"責":1743,"貴":1744,"買":1745,"貸":1746,"費":1747,"貿":1748,"賀":1749,"賃":1750,"資":1751,"賈":1752,"賊":1753,"賓":1754,"賜":1755,"賞":1756,"賠":1757,"賢":1758,"賣":1759,"賤":1760,"賦":1761,"質":1762,"賴":1763,"贈":1764,"贊":1765,"赤":1766,"走":1767,"起":1768,"超":1769,"越":1770,"趙":1771,"足":1772,"跡":1773,"路":1774,"蹟":1775,"身":1776,"車":1777,"軌":1778,"軍":1779,"軒":1780,"載":1781,"輔":1782,"輕":1783,"輝":1784,"輪":1785,"輯":1786,"輸":1787,"輿":1788,"轉":1789,"辛":1790,"辨":1791,"辭":1792,"辯":1793,"辰":1794,"農":1795,"迅":1796,"迎":1797,"近":1798,"返":1799,"迦":1800,"述":1801,"迷":1802,"追":1803,"退":1804,"送":1805,"逆":1806,"通":1807,"速":1808,"造":1809,"連":1810,"週":1811,"進":1812,"逸":1813,"遂":1814,"遇":1815,"遊":1816,"運":1817,"過":1818,"道":1819,"達":1820,"違":1821,"遠":1822,"遡":1823,"適":1824,"遲":1825,"遷":1826,"選":1827,"遺":1828,"遼":1829,"避":1830,"還":1831,"邊":1832,"邑":1833,"那":1834,"邦":1835,"邪":1836,"邱":1837,"郎":1838,"郞":1839,"郡":1840,"部":1841,"郭":1842,"都":1843,"鄕":1844,"鄧":1845,"鄭":1846,"酉":1847,"配":1848,"酒":1849,"酸":1850,"醉":1851,"醫":1852,"采":1853,"釋":1854,"里":1855,"重":1856,"野":1857,"量":1858,"金":1859,"釜":1860,"針":1861,"釣":1862,"鉉":1863,"銀":1864,"銅":1865,"銘":1866,"錄":1867,"錢":1868,"錦":1869,"錫":1870,"錯":1871,"鍾":1872,"鎬":1873,"鎭":1874,"鏡":1875,"鐘":1876,"鐵":1877,"鑑":1878,"镇":1879,"長":1880,"門":1881,"開":1882,"閑":1883,"間":1884,"閔":1885,"閣":1886,"關":1887,"阪":1888,"防":1889,"阿":1890,"陀":1891,"附":1892,"降":1893,"限":1894,"陝":1895,"院":1896,"陣":1897,"除":1898,"陰":1899,"陳":1900,"陵":1901,"陶":1902,"陸":1903,"陽":1904,"隆":1905,"隊":1906,"隋":1907,"階":1908,"際":1909,"障":1910,"隨":1911,"險":1912,"隱":1913,"雄":1914,"雅":1915,"集":1916,"雖":1917,"雙":1918,"雜":1919,"離":1920,"難":1921,"雨":1922,"雪":1923,"雲":1924,"雷":1925,"電":1926,"需":1927,"震":1928,"露":1929,"靈":1930,"靑":1931,"靖":1932,"靜":1933,"非":1934,"面":1935,"革":1936,"韓":1937,"音":1938,"韻":1939,"頂":1940,"項":1941,"順":1942,"須":1943,"頌":1944,"頓":1945,"領":1946,"頭":1947,"題":1948,"額":1949,"顔":1950,"願":1951,"類":1952,"顧":1953,"顯":1954,"風":1955,"飛":1956,"食":1957,"飮":1958,"飯":1959,"養":1960,"餘":1961,"館":1962,"首":1963,"香":1964,"馬":1965,"駐":1966,"騎":1967,"驗":1968,"驚":1969,"驛":1970,"骨":1971,"體":1972,"高":1973,"髮":1974,"鬪":1975,"鬼":1976,"魂":1977,"魏":1978,"魔":1979,"魚":1980,"魯":1981,"鮮":1982,"鳥":1983,"鳩":1984,"鳳":1985,"鳴":1986,"鴻":1987,"鵬":1988,"鶴":1989,"鷄":1990,"鹽":1991,"鹿":1992,"麗":1993,"麟":1994,"麻":1995,"黃":1996,"黑":1997,"默":1998,"點":1999,"黨":2000,"鼎":2001,"鼓":2002,"鼻":2003,"齊":2004,"齋":2005,"齒":2006,"齡":2007,"龍":2008,"龜":2009,"가":2010,"각":2011,"간":2012,"갇":2013,"갈":2014,"갉":2015,"감":2016,"갑":2017,"값":2018,"갓":2019,"갔":2020,"강":2021,"갖":2022,"갗":2023,"같":2024,"갚":2025,"갛":2026,"개":2027,"객":2028,"갠":2029,"갤":2030,"갬":2031,"갭":2032,"갯":2033,"갰":2034,"갱":2035,"갸":2036,"갹":2037,"걀":2038,"걍":2039,"걔":2040,"거":2041,"걱":2042,"건":2043,"걷":2044,"걸":2045,"검":2046,"겁":2047,"것":2048,"겄":2049,"겅":2050,"겉":2051,"겊":2052,"겋":2053,"게":2054,"겐":2055,"겔":2056,"겜":2057,"겝":2058,"겟":2059,"겠":2060,"겡":2061,"겨":2062,"격":2063,"겪":2064,"견":2065,"결":2066,"겸":2067,"겹":2068,"겻":2069,"겼":2070,"경":2071,"곁":2072,"계":2073,"곗":2074,"고":2075,"곡":2076,"곤":2077,"곧":2078,"골":2079,"곪":2080,"곯":2081,"곰":2082,"곱":2083,"곳":2084,"공":2085,"곶":2086,"과":2087,"곽":2088,"관":2089,"괄":2090,"괌":2091,"광":2092,"괘":2093,"괜":2094,"괭":2095,"괴":2096,"괸":2097,"굉":2098,"교":2099,"굣":2100,"구":2101,"국":2102,"군":2103,"굳":2104,"굴":2105,"굵":2106,"굶":2107,"굼":2108,"굽":2109,"굿":2110,"궁":2111,"궂":2112,"궈":2113,"권":2114,"궐":2115,"궜":2116,"궤":2117,"귀":2118,"귄":2119,"귈":2120,"귐":2121,"귓":2122,"규":2123,"균":2124,"귤":2125,"그":2126,"극":2127,"근":2128,"글":2129,"긁":2130,"금":2131,"급":2132,"긋":2133,"긍":2134,"긔":2135,"기":2136,"긱":2137,"긴":2138,"길":2139,"긿":2140,"김":2141,"깁":2142,"깃":2143,"깄":2144,"깅":2145,"깊":2146,"까":2147,"깍":2148,"깎":2149,"깐":2150,"깔":2151,"깜":2152,"깝":2153,"깟":2154,"깠":2155,"깡":2156,"깥":2157,"깨":2158,"깬":2159,"깰":2160,"깻":2161,"깼":2162,"깽":2163,"꺄":2164,"꺅":2165,"꺼":2166,"꺽":2167,"꺾":2168,"껀":2169,"껄":2170,"껌":2171,"껍":2172,"껏":2173,"껐":2174,"껑":2175,"께":2176,"껫":2177,"껴":2178,"꼈":2179,"꼐":2180,"꼬":2181,"꼭":2182,"꼰":2183,"꼴":2184,"꼼":2185,"꼽":2186,"꼿":2187,"꽁":2188,"꽂":2189,"꽃":2190,"꽈":2191,"꽉":2192,"꽝":2193,"꽤":2194,"꽥":2195,"꽹":2196,"꾀":2197,"꾸":2198,"꾹":2199,"꾼":2200,"꿀":2201,"꿇":2202,"꿈":2203,"꿉":2204,"꿋":2205,"꿍":2206,"꿎":2207,"꿔":2208,"꿨":2209,"꿩":2210,"꿰":2211,"뀌":2212,"뀐":2213,"뀔":2214,"뀜":2215,"뀝":2216,"뀨":2217,"끄":2218,"끈":2219,"끊":2220,"끌":2221,"끓":2222,"끔":2223,"끕":2224,"끗":2225,"끙":2226,"끝":2227,"끼":2228,"끽":2229,"낀":2230,"낄":2231,"낌":2232,"낍":2233,"낏":2234,"낑":2235,"나":2236,"낙":2237,"낚":2238,"난":2239,"낟":2240,"날":2241,"낡":2242,"남":2243,"납":2244,"낫":2245,"났":2246,"낭":2247,"낮":2248,"낯":2249,"낱":2250,"낳":2251,"내":2252,"낵":2253,"낸":2254,"낼":2255,"냄":2256,"냅":2257,"냇":2258,"냈":2259,"냉":2260,"냐":2261,"냑":2262,"냔":2263,"냘":2264,"냠":2265,"냥":2266,"너":2267,"넉":2268,"넋":2269,"넌":2270,"널":2271,"넓":2272,"넘":2273,"넙":2274,"넛":2275,"넜":2276,"넝":2277,"넣":2278,"네":2279,"넥":2280,"넨":2281,"넬":2282,"넴":2283,"넵":2284,"넷":2285,"넸":2286,"넹":2287,"녀":2288,"녁":2289,"년":2290,"념":2291,"녔":2292,"녕":2293,"녘":2294,"녜":2295,"노":2296,"녹":2297,"논":2298,"놀":2299,"놈":2300,"놉":2301,"놋":2302,"농":2303,"높":2304,"놓":2305,"놔":2306,"놨":2307,"뇌":2308,"뇨":2309,"뇰":2310,"뇸":2311,"뇽":2312,"누":2313,"눅":2314,"눈":2315,"눌":2316,"눔":2317,"눕":2318,"눗":2319,"눙":2320,"눠":2321,"눴":2322,"뉘":2323,"뉜":2324,"뉠":2325,"뉴":2326,"늄":2327,"늉":2328,"느":2329,"늑":2330,"는":2331,"늘":2332,"늙":2333,"늠":2334,"능":2335,"늦":2336,"늪":2337,"늬":2338,"니":2339,"닉":2340,"닌":2341,"닐":2342,"님":2343,"닙":2344,"닛":2345,"닝":2346,"닢":2347,"다":2348,"닥":2349,"닦":2350,"단":2351,"닫":2352,"달":2353,"닭":2354,"닮":2355,"닳":2356,"담":2357,"답":2358,"닷":2359,"당":2360,"닻":2361,"닿":2362,"대":2363,"댁":2364,"댄":2365,"댈":2366,"댐":2367,"댑":2368,"댓":2369,"댔":2370,"댕":2371,"댜":2372,"더":2373,"덕":2374,"던":2375,"덜":2376,"덟":2377,"덤":2378,"덥":2379,"덧":2380,"덩":2381,"덫":2382,"덮":2383,"데":2384,"덱":2385,"덴":2386,"델":2387,"뎀":2388,"뎁":2389,"뎃":2390,"뎅":2391,"뎌":2392,"뎐":2393,"뎠":2394,"뎬":2395,"도":2396,"독":2397,"돈":2398,"돋":2399,"돌":2400,"돔":2401,"돕":2402,"돗":2403,"동":2404,"돛":2405,"돠":2406,"돤":2407,"돼":2408,"됏":2409,"됐":2410,"되":2411,"된":2412,"될":2413,"됨":2414,"됩":2415,"됫":2416,"됬":2417,"됴":2418,"두":2419,"둑":2420,"둔":2421,"둘":2422,"둠":2423,"둡":2424,"둣":2425,"둥":2426,"둬":2427,"뒀":2428,"뒈":2429,"뒤":2430,"뒷":2431,"뒹":2432,"듀":2433,"듄":2434,"듈":2435,"듐":2436,"드":2437,"득":2438,"든":2439,"듣":2440,"들":2441,"듦":2442,"듬":2443,"듭":2444,"듯":2445,"등":2446,"듸":2447,"디":2448,"딕":2449,"딘":2450,"딛":2451,"딜":2452,"딤":2453,"딥":2454,"딧":2455,"딨":2456,"딩":2457,"딪":2458,"따":2459,"딱":2460,"딴":2461,"딸":2462,"땀":2463,"땃":2464,"땄":2465,"땅":2466,"땋":2467,"때":2468,"땐":2469,"땔":2470,"땜":2471,"땠":2472,"땡":2473,"떄":2474,"떠":2475,"떡":2476,"떤":2477,"떨":2478,"떫":2479,"떳":2480,"떴":2481,"떵":2482,"떻":2483,"떼":2484,"뗀":2485,"뗄":2486,"뗏":2487,"뗐":2488,"또":2489,"똑":2490,"똘":2491,"똥":2492,"똬":2493,"뙇":2494,"뙤":2495,"뚜":2496,"뚝":2497,"뚠":2498,"뚤":2499,"뚫":2500,"뚱":2501,"뛰":2502,"뛴":2503,"뛸":2504,"뜀":2505,"뜨":2506,"뜩":2507,"뜬":2508,"뜯":2509,"뜰":2510,"뜸":2511,"뜹":2512,"뜻":2513,"띄":2514,"띈":2515,"띌":2516,"띔":2517,"띕":2518,"띠":2519,"띤":2520,"띨":2521,"띵":2522,"라":2523,"락":2524,"란":2525,"랄":2526,"람":2527,"랍":2528,"랏":2529,"랐":2530,"랑":2531,"랖":2532,"랗":2533,"래":2534,"랙":2535,"랜":2536,"랠":2537,"램":2538,"랩":2539,"랫":2540,"랬":2541,"랭":2542,"랴":2543,"략":2544,"량":2545,"러":2546,"럭":2547,"런":2548,"럴":2549,"럼":2550,"럽":2551,"럿":2552,"렀":2553,"렁":2554,"렇":2555,"레":2556,"렉":2557,"렌":2558,"렐":2559,"렘":2560,"렙":2561,"렛":2562,"렝":2563,"려":2564,"력":2565,"련":2566,"렬":2567,"렴":2568,"렵":2569,"렷":2570,"렸":2571,"령":2572,"례":2573,"롄":2574,"로":2575,"록":2576,"론":2577,"롤":2578,"롬":2579,"롭":2580,"롯":2581,"롱":2582,"롸":2583,"뢰":2584,"뢴":2585,"룀":2586,"료":2587,"룡":2588,"루":2589,"룩":2590,"룬":2591,"룰":2592,"룸":2593,"룹":2594,"룻":2595,"룽":2596,"뤄":2597,"뤘":2598,"뤠":2599,"뤼":2600,"뤽":2601,"륀":2602,"륄":2603,"류":2604,"륙":2605,"륜":2606,"률":2607,"륨":2608,"륭":2609,"르":2610,"륵":2611,"른":2612,"를":2613,"름":2614,"릅":2615,"릇":2616,"릉":2617,"릎":2618,"릏":2619,"리":2620,"릭":2621,"린":2622,"릴":2623,"림":2624,"립":2625,"릿":2626,"링":2627,"마":2628,"막":2629,"만":2630,"많":2631,"맏":2632,"말":2633,"맑":2634,"맘":2635,"맙":2636,"맛":2637,"망":2638,"맞":2639,"맡":2640,"맣":2641,"매":2642,"맥":2643,"맨":2644,"맬":2645,"맴":2646,"맵":2647,"맷":2648,"맸":2649,"맹":2650,"맺":2651,"먀":2652,"머":2653,"먹":2654,"먼":2655,"멀":2656,"멈":2657,"멋":2658,"멍":2659,"멎":2660,"멓":2661,"메":2662,"멕":2663,"멘":2664,"멜":2665,"멤":2666,"멥":2667,"멧":2668,"멩":2669,"며":2670,"멱":2671,"면":2672,"멸":2673,"몄":2674,"명":2675,"몇":2676,"모":2677,"목":2678,"몫":2679,"몬":2680,"몰":2681,"몸":2682,"몹":2683,"못":2684,"몽":2685,"뫄":2686,"뫼":2687,"묏":2688,"묘":2689,"무":2690,"묵":2691,"묶":2692,"문":2693,"묻":2694,"물":2695,"묽":2696,"뭄":2697,"뭅":2698,"뭇":2699,"뭉":2700,"뭍":2701,"뭐":2702,"뭔":2703,"뭘":2704,"뭡":2705,"뭣":2706,"뮈":2707,"뮌":2708,"뮐":2709,"뮤":2710,"뮨":2711,"뮬":2712,"뮴":2713,"므":2714,"믄":2715,"믈":2716,"믐":2717,"미":2718,"믹":2719,"민":2720,"믿":2721,"밀":2722,"밈":2723,"밉":2724,"밋":2725,"밌":2726,"밍":2727,"및":2728,"밑":2729,"바":2730,"박":2731,"밖":2732,"반":2733,"받":2734,"발":2735,"밝":2736,"밟":2737,"밤":2738,"밥":2739,"밧":2740,"방":2741,"밭":2742,"배":2743,"백":2744,"밴":2745,"밸":2746,"뱀":2747,"뱁":2748,"뱃":2749,"뱅":2750,"뱉":2751,"뱌":2752,"버":2753,"벅":2754,"번":2755,"벌":2756,"범":2757,"법":2758,"벗":2759,"벙":2760,"벚":2761,"베":2762,"벡":2763,"벤":2764,"벧":2765,"벨":2766,"벰":2767,"벳":2768,"벵":2769,"벼":2770,"벽":2771,"변":2772,"별":2773,"볍":2774,"볏":2775,"볐":2776,"병":2777,"볕":2778,"볜":2779,"보":2780,"복":2781,"볶":2782,"본":2783,"볼":2784,"봄":2785,"봅":2786,"봇":2787,"봉":2788,"봐":2789,"봣":2790,"봤":2791,"봬":2792,"뵀":2793,"뵈":2794,"뵌":2795,"뵐":2796,"뵙":2797,"뵤":2798,"부":2799,"북":2800,"분":2801,"붇":2802,"불":2803,"붉":2804,"붐":2805,"붑":2806,"붓":2807,"붕":2808,"붙":2809,"뷔":2810,"뷜":2811,"뷰":2812,"뷴":2813,"뷸":2814,"브":2815,"븐":2816,"블":2817,"비":2818,"빅":2819,"빈":2820,"빌":2821,"빔":2822,"빕":2823,"빗":2824,"빙":2825,"빚":2826,"빛":2827,"빠":2828,"빡":2829,"빤":2830,"빨":2831,"빰":2832,"빱":2833,"빳":2834,"빴":2835,"빵":2836,"빻":2837,"빼":2838,"빽":2839,"뺀":2840,"뺄":2841,"뺌":2842,"뺏":2843,"뺐":2844,"뺑":2845,"뺨":2846,"뻐":2847,"뻑":2848,"뻔":2849,"뻗":2850,"뻘":2851,"뻣":2852,"뻤":2853,"뻥":2854,"뻬":2855,"뼈":2856,"뼉":2857,"뼘":2858,"뼛":2859,"뽀":2860,"뽁":2861,"뽈":2862,"뽐":2863,"뽑":2864,"뽕":2865,"뾰":2866,"뿅":2867,"뿌":2868,"뿍":2869,"뿐":2870,"뿔":2871,"뿜":2872,"뿡":2873,"쁘":2874,"쁜":2875,"쁠":2876,"쁨":2877,"쁩":2878,"삐":2879,"삑":2880,"삔":2881,"삘":2882,"삥":2883,"사":2884,"삭":2885,"삯":2886,"산":2887,"살":2888,"삵":2889,"삶":2890,"삼":2891,"삽":2892,"삿":2893,"샀":2894,"상":2895,"샅":2896,"새":2897,"색":2898,"샌":2899,"샐":2900,"샘":2901,"샛":2902,"샜":2903,"생":2904,"샤":2905,"샥":2906,"샨":2907,"샬":2908,"샴":2909,"샵":2910,"샷":2911,"샹":2912,"섀":2913,"서":2914,"석":2915,"섞":2916,"선":2917,"섣":2918,"설":2919,"섬":2920,"섭":2921,"섯":2922,"섰":2923,"성":2924,"섶":2925,"세":2926,"섹":2927,"센":2928,"셀":2929,"셈":2930,"셉":2931,"셋":2932,"셌":2933,"셍":2934,"셔":2935,"션":2936,"셜":2937,"셤":2938,"셧":2939,"셨":2940,"셩":2941,"셰":2942,"셴":2943,"셸":2944,"솅":2945,"소":2946,"속":2947,"솎":2948,"손":2949,"솔":2950,"솜":2951,"솝":2952,"솟":2953,"송":2954,"솥":2955,"솨":2956,"쇄":2957,"쇠":2958,"쇤":2959,"쇳":2960,"쇼":2961,"숀":2962,"숄":2963,"숍":2964,"숏":2965,"숑":2966,"수":2967,"숙":2968,"순":2969,"숟":2970,"술":2971,"숨":2972,"숩":2973,"숫":2974,"숭":2975,"숯":2976,"숱":2977,"숲":2978,"숴":2979,"쉈":2980,"쉐":2981,"쉑":2982,"쉔":2983,"쉘":2984,"쉬":2985,"쉭":2986,"쉰":2987,"쉴":2988,"쉼":2989,"쉽":2990,"쉿":2991,"슈":2992,"슉":2993,"슌":2994,"슐":2995,"슘":2996,"슛":2997,"슝":2998,"스":2999,"슥":3000,"슨":3001,"슬":3002,"슭":3003,"슴":3004,"습":3005,"슷":3006,"승":3007,"시":3008,"식":3009,"신":3010,"싣":3011,"실":3012,"싫":3013,"심":3014,"십":3015,"싯":3016,"싱":3017,"싶":3018,"싸":3019,"싹":3020,"싼":3021,"쌀":3022,"쌈":3023,"쌉":3024,"쌌":3025,"쌍":3026,"쌓":3027,"쌔":3028,"쌕":3029,"쌘":3030,"쌤":3031,"쌩":3032,"썅":3033,"써":3034,"썩":3035,"썬":3036,"썰":3037,"썸":3038,"썹":3039,"썻":3040,"썼":3041,"썽":3042,"쎄":3043,"쎈":3044,"쎌":3045,"쏘":3046,"쏙":3047,"쏜":3048,"쏟":3049,"쏠":3050,"쏭":3051,"쏴":3052,"쐈":3053,"쐐":3054,"쐬":3055,"쑈":3056,"쑤":3057,"쑥":3058,"쑨":3059,"쑹":3060,"쒀":3061,"쒸":3062,"쓰":3063,"쓱":3064,"쓴":3065,"쓸":3066,"씀":3067,"씁":3068,"씌":3069,"씐":3070,"씨":3071,"씩":3072,"씬":3073,"씰":3074,"씸":3075,"씹":3076,"씻":3077,"씽":3078,"아":3079,"악":3080,"안":3081,"앉":3082,"않":3083,"알":3084,"앎":3085,"앓":3086,"암":3087,"압":3088,"앗":3089,"았":3090,"앙":3091,"앞":3092,"애":3093,"액":3094,"앤":3095,"앨":3096,"앰":3097,"앱":3098,"앳":3099,"앴":3100,"앵":3101,"야":3102,"약":3103,"얀":3104,"얄":3105,"얇":3106,"얌":3107,"얍":3108,"얏":3109,"양":3110,"얕":3111,"얗":3112,"얘":3113,"어":3114,"억":3115,"언":3116,"얹":3117,"얻":3118,"얼":3119,"얽":3120,"엄":3121,"업":3122,"없":3123,"엇":3124,"었":3125,"엉":3126,"엊":3127,"엌":3128,"엎":3129,"에":3130,"엑":3131,"엔":3132,"엘":3133,"엠":3134,"엡":3135,"엣":3136,"엥":3137,"여":3138,"역":3139,"엮":3140,"연":3141,"열":3142,"엷":3143,"염":3144,"엽":3145,"엾":3146,"엿":3147,"였":3148,"영":3149,"옅":3150,"옆":3151,"옇":3152,"예":3153,"옌":3154,"옐":3155,"옙":3156,"옛":3157,"오":3158,"옥":3159,"온":3160,"올":3161,"옭":3162,"옮":3163,"옳":3164,"옴":3165,"옵":3166,"옷":3167,"옹":3168,"옻":3169,"와":3170,"왁":3171,"완":3172,"왈":3173,"왑":3174,"왓":3175,"왔":3176,"왕":3177,"왜":3178,"왠":3179,"왤":3180,"외":3181,"왼":3182,"요":3183,"욕":3184,"욘":3185,"욜":3186,"욤":3187,"욥":3188,"욧":3189,"용":3190,"우":3191,"욱":3192,"운":3193,"울":3194,"움":3195,"웁":3196,"웃":3197,"웅":3198,"워":3199,"웍":3200,"원":3201,"월":3202,"웜":3203,"웟":3204,"웠":3205,"웡":3206,"웨":3207,"웩":3208,"웬":3209,"웰":3210,"웸":3211,"웹":3212,"위":3213,"윅":3214,"윈":3215,"윌":3216,"윔":3217,"윕":3218,"윗":3219,"윙":3220,"유":3221,"육":3222,"윤":3223,"율":3224,"윰":3225,"윳":3226,"융":3227,"윷":3228,"으":3229,"윽":3230,"은":3231,"을":3232,"읊":3233,"음":3234,"읍":3235,"읏":3236,"응":3237,"의":3238,"읜":3239,"이":3240,"익":3241,"인":3242,"일":3243,"읽":3244,"잃":3245,"임":3246,"입":3247,"잇":3248,"있":3249,"잉":3250,"잊":3251,"잌":3252,"잎":3253,"자":3254,"작":3255,"잔":3256,"잖":3257,"잘":3258,"잠":3259,"잡":3260,"잣":3261,"잤":3262,"장":3263,"잦":3264,"재":3265,"잭":3266,"잰":3267,"잴":3268,"잼":3269,"잽":3270,"잿":3271,"쟀":3272,"쟁":3273,"쟈":3274,"쟌":3275,"쟝":3276,"쟤":3277,"저":3278,"적":3279,"전":3280,"절":3281,"젊":3282,"점":3283,"접":3284,"젓":3285,"정":3286,"젖":3287,"제":3288,"젝":3289,"젠":3290,"젤":3291,"젬":3292,"젭":3293,"젯":3294,"져":3295,"젼":3296,"졋":3297,"졌":3298,"졍":3299,"졔":3300,"조":3301,"족":3302,"존":3303,"졸":3304,"좀":3305,"좁":3306,"좃":3307,"종":3308,"좆":3309,"좇":3310,"좋":3311,"좌":3312,"좔":3313,"좡":3314,"좥":3315,"좦":3316,"죄":3317,"죌":3318,"죗":3319,"죠":3320,"죤":3321,"죵":3322,"주":3323,"죽":3324,"준":3325,"줄":3326,"줌":3327,"줍":3328,"줏":3329,"중":3330,"줘":3331,"줫":3332,"줬":3333,"쥐":3334,"쥔":3335,"쥘":3336,"쥬":3337,"쥰":3338,"쥴":3339,"즁":3340,"즈":3341,"즉":3342,"즌":3343,"즐":3344,"즘":3345,"즙":3346,"증":3347,"지":3348,"직":3349,"진":3350,"질":3351,"짊":3352,"짐":3353,"집":3354,"짓":3355,"징":3356,"짖":3357,"짙":3358,"짚":3359,"짜":3360,"짝":3361,"짠":3362,"짢":3363,"짤":3364,"짧":3365,"짬":3366,"짭":3367,"짰":3368,"짱":3369,"째":3370,"짹":3371,"쨈":3372,"쨋":3373,"쨌":3374,"쨍":3375,"쨔":3376,"쨩":3377,"쩌":3378,"쩍":3379,"쩐":3380,"쩔":3381,"쩜":3382,"쩝":3383,"쩡":3384,"쩨":3385,"쪄":3386,"쪘":3387,"쪼":3388,"쪽":3389,"쫀":3390,"쫄":3391,"쫌":3392,"쫑":3393,"쫒":3394,"쫓":3395,"쫘":3396,"쫙":3397,"쬐":3398,"쭈":3399,"쭉":3400,"쭌":3401,"쭐":3402,"쭘":3403,"쭙":3404,"쭝":3405,"쭤":3406,"쮸":3407,"쯔":3408,"쯤":3409,"쯧":3410,"찌":3411,"찍":3412,"찐":3413,"찔":3414,"찜":3415,"찝":3416,"찡":3417,"찢":3418,"찧":3419,"차":3420,"착":3421,"찬":3422,"찮":3423,"찰":3424,"참":3425,"찹":3426,"찻":3427,"찼":3428,"창":3429,"찾":3430,"채":3431,"책":3432,"챈":3433,"챌":3434,"챔":3435,"챕":3436,"챗":3437,"챘":3438,"챙":3439,"챠":3440,"챤":3441,"챱":3442,"처":3443,"척":3444,"천":3445,"철":3446,"첨":3447,"첩":3448,"첫":3449,"청":3450,"체":3451,"첵":3452,"첸":3453,"첼":3454,"쳇":3455,"쳉":3456,"쳐":3457,"쳔":3458,"쳣":3459,"쳤":3460,"초":3461,"촉":3462,"촌":3463,"촐":3464,"촘":3465,"촛":3466,"총":3467,"촤":3468,"촨":3469,"촬":3470,"촵":3471,"최":3472,"쵸":3473,"추":3474,"축":3475,"춘":3476,"출":3477,"춤":3478,"춥":3479,"춧":3480,"충":3481,"춰":3482,"췄":3483,"췌":3484,"취":3485,"췬":3486,"츄":3487,"츈":3488,"츠":3489,"측":3490,"츤":3491,"츨":3492,"츰":3493,"츳":3494,"층":3495,"치":3496,"칙":3497,"친":3498,"칠":3499,"칡":3500,"침":3501,"칩":3502,"칫":3503,"칭":3504,"카":3505,"칵":3506,"칸":3507,"칼":3508,"캄":3509,"캅":3510,"캇":3511,"캉":3512,"캐":3513,"캑":3514,"캔":3515,"캘":3516,"캠":3517,"캡":3518,"캣":3519,"캤":3520,"캥":3521,"캬":3522,"커":3523,"컥":3524,"컨":3525,"컫":3526,"컬":3527,"컴":3528,"컵":3529,"컷":3530,"컸":3531,"컹":3532,"케":3533,"켁":3534,"켄":3535,"켈":3536,"켐":3537,"켑":3538,"켓":3539,"켕":3540,"켜":3541,"켠":3542,"켤":3543,"켰":3544,"코":3545,"콕":3546,"콘":3547,"콜":3548,"콤":3549,"콥":3550,"콧":3551,"콩":3552,"콰":3553,"콱":3554,"콴":3555,"콸":3556,"쾅":3557,"쾌":3558,"쾨":3559,"쾰":3560,"쿄":3561,"쿠":3562,"쿡":3563,"쿤":3564,"쿨":3565,"쿰":3566,"쿱":3567,"쿵":3568,"쿼":3569,"퀀":3570,"퀄":3571,"퀑":3572,"퀘":3573,"퀭":3574,"퀴":3575,"퀵":3576,"퀸":3577,"퀼":3578,"큐":3579,"큘":3580,"크":3581,"큭":3582,"큰":3583,"클":3584,"큼":3585,"큽":3586,"킁":3587,"키":3588,"킥":3589,"킨":3590,"킬":3591,"킴":3592,"킵":3593,"킷":3594,"킹":3595,"타":3596,"탁":3597,"탄":3598,"탈":3599,"탉":3600,"탐":3601,"탑":3602,"탓":3603,"탔":3604,"탕":3605,"태":3606,"택":3607,"탠":3608,"탤":3609,"탬":3610,"탭":3611,"탯":3612,"탰":3613,"탱":3614,"탸":3615,"터":3616,"턱":3617,"턴":3618,"털":3619,"텀":3620,"텁":3621,"텃":3622,"텄":3623,"텅":3624,"테":3625,"텍":3626,"텐":3627,"텔":3628,"템":3629,"텝":3630,"텟":3631,"텡":3632,"텨":3633,"텼":3634,"톈":3635,"토":3636,"톡":3637,"톤":3638,"톨":3639,"톰":3640,"톱":3641,"톳":3642,"통":3643,"퇴":3644,"툇":3645,"투":3646,"툭":3647,"툰":3648,"툴":3649,"툼":3650,"퉁":3651,"퉈":3652,"퉜":3653,"퉤":3654,"튀":3655,"튄":3656,"튈":3657,"튕":3658,"튜":3659,"튠":3660,"튤":3661,"튬":3662,"트":3663,"특":3664,"튼":3665,"튿":3666,"틀":3667,"틈":3668,"틋":3669,"틔":3670,"티":3671,"틱":3672,"틴":3673,"틸":3674,"팀":3675,"팁":3676,"팅":3677,"파":3678,"팍":3679,"팎":3680,"판":3681,"팔":3682,"팜":3683,"팝":3684,"팟":3685,"팠":3686,"팡":3687,"팥":3688,"패":3689,"팩":3690,"팬":3691,"팰":3692,"팸":3693,"팹":3694,"팻":3695,"팼":3696,"팽":3697,"퍼":3698,"퍽":3699,"펀":3700,"펄":3701,"펌":3702,"펍":3703,"펐":3704,"펑":3705,"페":3706,"펙":3707,"펜":3708,"펠":3709,"펨":3710,"펩":3711,"펫":3712,"펭":3713,"펴":3714,"편":3715,"펼":3716,"폄":3717,"폈":3718,"평":3719,"폐":3720,"포":3721,"폭":3722,"폰":3723,"폴":3724,"폼":3725,"폿":3726,"퐁":3727,"푀":3728,"표":3729,"푯":3730,"푸":3731,"푹":3732,"푼":3733,"풀":3734,"품":3735,"풋":3736,"풍":3737,"퓌":3738,"퓨":3739,"퓰":3740,"퓸":3741,"프":3742,"픈":3743,"플":3744,"픔":3745,"픕":3746,"피":3747,"픽":3748,"핀":3749,"필":3750,"핌":3751,"핍":3752,"핏":3753,"핑":3754,"하":3755,"학":3756,"한":3757,"할":3758,"핥":3759,"함":3760,"합":3761,"핫":3762,"항":3763,"해":3764,"핵":3765,"핸":3766,"핼":3767,"햄":3768,"햅":3769,"햇":3770,"했":3771,"행":3772,"햐":3773,"향":3774,"허":3775,"헉":3776,"헌":3777,"헐":3778,"험":3779,"헙":3780,"헛":3781,"헝":3782,"헤":3783,"헥":3784,"헨":3785,"헬":3786,"헴":3787,"헵":3788,"헷":3789,"헹":3790,"헿":3791,"혀":3792,"혁":3793,"현":3794,"혈":3795,"혐":3796,"협":3797,"혓":3798,"혔":3799,"형":3800,"혜":3801,"호":3802,"혹":3803,"혼":3804,"홀":3805,"홈":3806,"홉":3807,"홋":3808,"홍":3809,"홑":3810,"화":3811,"확":3812,"환":3813,"활":3814,"홧":3815,"황":3816,"홰":3817,"홱":3818,"횃":3819,"회":3820,"획":3821,"횔":3822,"횟":3823,"횡":3824,"효":3825,"후":3826,"훅":3827,"훈":3828,"훌":3829,"훑":3830,"훔":3831,"훗":3832,"훙":3833,"훠":3834,"훤":3835,"훨":3836,"훼":3837,"휀":3838,"휑":3839,"휘":3840,"휙":3841,"휜":3842,"휠":3843,"휩":3844,"휴":3845,"휼":3846,"흄":3847,"흉":3848,"흐":3849,"흑":3850,"흔":3851,"흘":3852,"흙":3853,"흠":3854,"흡":3855,"흣":3856,"흥":3857,"흩":3858,"희":3859,"흰":3860,"히":3861,"힉":3862,"힌":3863,"힐":3864,"힘":3865,"힙":3866,"힛":3867,"힝":3868,"金":3869,"老":3870,"魯":3871,"論":3872,"樂":3873,"不":3874,"兩":3875,"良":3876,"女":3877,"年":3878,"連":3879,"禮":3880,"龍":3881,"劉":3882,"流":3883,"六":3884,"李":3885,"理":3886,"️":3887,"！":3888,"＂":3889,"＄":3890,"％":3891,"＆":3892,"（":3893,"）":3894,"＊":3895,"＋":3896,"，":3897,"－":3898,"．":3899,"：":3900,"；":3901,"＜":3902,"＝":3903,"＞":3904,"？":3905,"［":3906,"］":3907,"＿":3908,"ｇ":3909,"ｍ":3910,"ｔ":3911,"｜":3912,"～":3913,"｢":3914,"｣":3915,"･":3916,"￦":3917,"🌟":3918,"🌷":3919,"🌸":3920,"🌿":3921,"🍃":3922,"🍓":3923,"🍞":3924,"🍫":3925,"🍳":3926,"🍴":3927,"🎁":3928,"🎉":3929,"🎶":3930,"🏃":3931,"🏻":3932,"🏼":3933,"🐶":3934,"🐷":3935,"🐽":3936,"👀":3937,"👈":3938,"👉":3939,"👊":3940,"👋":3941,"👍":3942,"👏":3943,"👧":3944,"👩":3945,"👶":3946,"👻":3947,"💃":3948,"💓":3949,"💕":3950,"💖":3951,"💗":3952,"💘":3953,"💙":3954,"💚":3955,"💛":3956,"💜":3957,"💦":3958,"💪":3959,"📌":3960,"🔥":3961,"🖤":3962,"😀":3963,"😁":3964,"😂":3965,"😃":3966,"😄":3967,"😅":3968,"😆":3969,"😉":3970,"😊":3971,"😋":3972,"😌":3973,"😍":3974,"😎":3975,"😏":3976,"😖":3977,"😘":3978,"😙":3979,"😚":3980,"😛":3981,"😝":3982,"😢":3983,"😥":3984,"😭":3985,"😱":3986,"😳":3987,"🙂":3988,"🙄":3989,"🙆":3990,"🙈":3991,"🙊":3992,"🙋":3993,"🙌":3994,"🙏":3995,"🤔":3996,"🤗":3997,"🤣":3998,"🤤":3999,"🤦":4000,"🤩":4001,"🤭":4002,"🥰":4003,"🧡":4004,"##원":4005,"##들":4006,"##이":4007,"##o":4008,"##r":4009,"##e":4010,"##k":4011,"##a":4012,"##H":4013,"##O":4014,"##B":4015,"##A":4016,"##티":4017,"##n":4018,"##t":4019,"##v":4020,"##s":4021,"##ㅜ":4022,"##드":4023,"##디":4024,"##어":4025,"##린":4026,"##급":4027,"##성":4028,"##호":4029,"##흡":4030,"##기":4031,"##감":4032,"##염":4033,"##는":4034,"##p":4035,"##m":4036,"##i":4037,"##노":4038,"##트":4039,"##북":4040,"##ㆍ":4041,"##관":4042,"##광":4043,"##여":4044,"##행":4045,"##권":4046,"##과":4047,"##장":4048,"##연":4049,"##구":4050,"##c":4051,"##l":4052,"##L":4053,"##u":4054,"##x":4055,"##7":4056,"##1":4057,"##0":4058,"##f":4059,"##g":4060,"##늘":4061,"##길":4062,"##스":4063,"##테":4064,"##나":4065,"##판":4066,"##사":4067,"##전":4068,"##문":4069,"##가":4070,"##단":4071,"##체":4072,"##에":4073,"##유":4074,"##학":4075,"##주":4076,"##청":4077,"##h":4078,"##d":4079,"##초":4080,"##상":4081,"##b":4082,"##식":4083,"##조":4084,"##르":4085,"##도":4086,"##액":4087,"##ㄹ":4088,"##동":4089,"##D":4090,"##C":4091,"##с":4092,"##о":4093,"##к":4094,"##и":4095,"##6":4096,"##2":4097,"##G":4098,"##I":4099,"##Q":4100,"##U":4101,"##E":4102,"##풍":4103,"##소":4104,"##P":4105,"##제":4106,"##셜":4107,"##리":4108,"##강":4109,"##를":4110,"##R":4111,"##은":4112,"##국":4113,"##시":4114,"##z":4115,"##네":4116,"##모":4117,"##라":4118,"##백":4119,"##위":4120,"##y":4121,"##산":4122,"##촌":4123,"##코":4124,"##파":4125,"##병":4126,"##오":4127,"##찬":4128,"##서":4129,"##S":4130,"##반":4131,"##풀":4132,"##양":4133,"##돌":4134,"##외":4135,"##업":4136,"##엔":4137,"##터":4138,"##인":4139,"##먼":4140,"##수":4141,"##정":4142,"##미":4143,"##희":4144,"##창":4145,"##봉":4146,"##신":4147,"##닐":4148,"##까":4149,"##요":4150,"##해":4151,"##질":4152,"##아":4153,"##으":4154,"##니":4155,"##천":4156,"##환":4157,"##경":4158,"##평":4159,"##향":4160,"##실":4161,"##화":4162,"##X":4163,"##비":4164,"##험":4165,"##검":4166,"##널":4167,"##밖":4168,"##T":4169,"##K":4170,"##재":4171,"##만":4172,"##품":4173,"##증":4174,"##맷":4175,"##다":4176,"##마":4177,"##바":4178,"##랏":4179,"##우":4180,"##면":4181,"##루":4182,"##매":4183,"##w":4184,"##무":4185,"##혼":4186,"##피":4187,"##물":4188,"##진":4189,"##포":4190,"##순":4191,"##와":4192,"##8":4193,"##타":4194,"##자":4195,"##V":4196,"##영":4197,"##W":4198,"##적":4199,"##지":4200,"##쳐":4201,"##열":4202,"##캐":4203,"##4":4204,"##5":4205,"##쿠":4206,"##선":4207,"##е":4208,"##р":4209,"##а":4210,"##н":4211,"##방":4212,"##회":4213,"##활":4214,"##숍":4215,"##거":4216,"##개":4217,"##입":4218,"##고":4219,"##j":4220,"##석":4221,"##홍":4222,"##출":4223,"##ы":4224,"##안":4225,"##느":4226,"##망":4227,"##려":4228,"##M":4229,"##프":4230,"##운":4231,"##각":4232,"##목":4233,"##의":4234,"##통":4235,"##굴":4236,"##뚝":4237,"##배":4238,"##로":4239,"##🤔":4240,"##😆":4241,"##투":4242,"##헌":4243,"##데":4244,"##없":4245,"##세":4246,"##히":4247,"##폰":4248,"##뱅":4249,"##킹":4250,"##범":4251,"##넬":4252,"##N":4253,"##엄":4254,"##항":4255,"##섭":4256,"##민":4257,"##부":4258,"##з":4259,"##я":4260,"##т":4261,"##в":4262,"##꽁":4263,"##팔":4264,"##레":4265,"##크":4266,"##욕":4267,"##톨":4268,"##○":4269,"##중":4270,"##란":4271,"##9":4272,"##3":4273,"##담":4274,"##보":4275,"##Y":4276,"##Z":4277,"##팅":4278,"##하":4279,"##합":4280,"##닷":4281,"##명":4282,"##한":4283,"##콜":4284,"##롤":4285,"##침":4286,"##q":4287,"##럭":4288,"##대":4289,"##교":4290,"##등":4291,"##을":4292,"##달":4293,"##랑":4294,"##베":4295,"##💗":4296,"##용":4297,"##킨":4298,"##날":4299,"##론":4300,"##온":4301,"##준":4302,"##형":4303,"##설":4304,"##긴":4305,"##락":4306,"##둘":4307,"##갑":4308,"##금":4309,"##술":4310,"##음":4311,"##푸":4312,"##🔥":4313,"##막":4314,"##처":4315,"##언":4316,"##종":4317,"##변":4318,"##추":4319,"##흥":4320,"##룻":4321,"##낮":4322,"##ㅇ":4323,"##ㅡ":4324,"##게":4325,"##탕":4326,"##걱":4327,"##꽂":4328,"##ㅠ":4329,"##너":4330,"##쎄":4331,"##치":4332,"##공":4333,"##숙":4334,"##박":4335,"##떠":4336,"##독":4337,"##내":4338,"##혀":4339,"##쓰":4340,"##브":4341,"##릭":4342,"##키":4343,"##ㅈ":4344,"##😊":4345,"##쟁":4346,"##패":4347,"##토":4348,"##두":4349,"##채":4350,"##율":4351,"##젠":4352,"##짜":4353,"##웃":4354,"##겨":4355,"##최":4356,"##즈":4357,"##편":4358,"##둑":4359,"##난":4360,"##력":4361,"##г":4362,"##왁":4363,"##뭇":4364,"##카":4365,"##일":4366,"##태":4367,"##머":4368,"##계":4369,"##층":4370,"##령":4371,"##본":4372,"##든":4373,"##격":4374,"##승":4375,"##표":4376,"##육":4377,"##률":4378,"##약":4379,"##좌":4380,"##놀":4381,"##옥":4382,"##웅":4383,"##쾨":4384,"##빙":4385,"##🏼":4386,"##발":4387,"##쿄":4388,"##팝":4389,"##벤":4390,"##б":4391,"##홀":4392,"##곳":4393,"##저":4394,"##래":4395,"##김":4396,"##군":4397,"##했":4398,"##F":4399,"##꺼":4400,"##펀":4401,"##좀":4402,"##당":4403,"##득":4404,"##납":4405,"##묘":4406,"##눈":4407,"##생":4408,"##럽":4409,"##ㅏ":4410,"##맞":4411,"##😘":4412,"##ㅁ":4413,"##악":4414,"##섬":4415,"##측":4416,"##익":4417,"##함":4418,"##넌":4419,"##웨":4420,"##엘":4421,"##덴":4422,"##햐":4423,"##름":4424,"##삼":4425,"##남":4426,"##덕":4427,"##픔":4428,"##불":4429,"##필":4430,"##건":4431,"##퍼":4432,"##축":4433,"##퇴":4434,"##알":4435,"##é":4436,"##심":4437,"##뚜":4438,"##틴":4439,"##렌":4440,"##그":4441,"##욥":4442,"##슈":4443,"##혁":4444,"##택":4445,"##겸":4446,"##극":4447,"##샨":4448,"##림":4449,"##확":4450,"##싶":4451,"##따":4452,"##끈":4453,"##결":4454,"##효":4455,"##♥":4456,"##송":4457,"##귀":4458,"##밀":4459,"##찰":4460,"##획":4461,"##말":4462,"##예":4463,"##왕":4464,"##손":4465,"##솝":4466,"##번":4467,"##현":4468,"##점":4469,"##취":4470,"##죄":4471,"##법":4472,"##분":4473,"##야":4474,"##😁":4475,"##🙊":4476,"##혔":4477,"##탈":4478,"##되":4479,"##었":4480,"##역":4481,"##차":4482,"##별":4483,"##객":4484,"##뼈":4485,"##농":4486,"##징":4487,"##류":4488,"##후":4489,"##팽":4490,"##속":4491,"##훼":4492,"##앙":4493,"##았":4494,"##링":4495,"##턴":4496,"##직":4497,"##러":4498,"##녀":4499,"##철":4500,"##월":4501,"##맘":4502,"##메":4503,"##암":4504,"##버":4505,"##셋":4506,"##견":4507,"##잘":4508,"##또":4509,"##껑":4510,"##챔":4511,"##빈":4512,"##ö":4513,"##힌":4514,"##텔":4515,"##커":4516,"##긋":4517,"##규":4518,"##할":4519,"##봐":4520,"##능":4521,"##헤":4522,"##겔":4523,"##둥":4524,"##슬":4525,"##작":4526,"##휴":4527,"##껴":4528,"##웬":4529,"##케":4530,"##ᆞ":4531,"##엽":4532,"##낙":4533,"##싯":4534,"##괴":4535,"##잡":4536,"##몽":4537,"##골":4538,"##훈":4539,"##룹":4540,"##슷":4541,"##답":4542,"##록":4543,"##ㅌ":4544,"##근":4545,"##슨":4546,"##셔":4547,"##힐":4548,"##튼":4549,"##맨":4550,"##책":4551,"##융":4552,"##뿐":4553,"##츠":4554,"##족":4555,"##년":4556,"##집":4557,"##ㅣ":4558,"##곡":4559,"##ㅋ":4560,"##씨":4561,"##쉬":4562,"##촨":4563,"##ㅓ":4564,"##협":4565,"##립":4566,"##럴":4567,"##움":4568,"##냐":4569,"##륨":4570,"##춘":4571,"##쇄":4572,"##겁":4573,"##혈":4574,"##페":4575,"##습":4576,"##닌":4577,"##깃":4578,"##듭":4579,"##났":4580,"##척":4581,"##울":4582,"##젼":4583,"##균":4584,"##련":4585,"##랙":4586,"##될":4587,"##릅":4588,"##엥":4589,"##새":4590,"##닉":4591,"##럼":4592,"##쁠":4593,"##임":4594,"##랩":4595,"##먹":4596,"##량":4597,"##잔":4598,"##워":4599,"##져":4600,"##꾸":4601,"##램":4602,"##잉":4603,"##황":4604,"##흐":4605,"##놔":4606,"##헨":4607,"##됩":4608,"##톤":4609,"##람":4610,"##댓":4611,"##줄":4612,"##꽃":4613,"##밍":4614,"##⑥":4615,"##퐁":4616,"##옹":4617,"##애":4618,"##닥":4619,"##낸":4620,"##총":4621,"##뻐":4622,"##춤":4623,"##J":4624,"##썩":4625,"##붙":4626,"##칼":4627,"##샷":4628,"##간":4629,"##읍":4630,"##촉":4631,"##똘":4632,"##앗":4633,"##🍃":4634,"##숀":4635,"##엇":4636,"##짓":4637,"##친":4638,"##억":4639,"##꿀":4640,"##맛":4641,"##붕":4642,"##켈":4643,"##닮":4644,"##참":4645,"##쾌":4646,"##핵":4647,"##ä":4648,"##벌":4649,"##뽁":4650,"##ㅑ":4651,"##ㅍ":4652,"##켜":4653,"##л":4654,"##볜":4655,"##텅":4656,"##놓":4657,"##늄":4658,"##굿":4659,"##님":4660,"##응":4661,"##꼴":4662,"##랜":4663,"##펙":4664,"##션":4665,"##윤":4666,"##벅":4667,"##끔":4668,"##씹":4669,"##댁":4670,"##랴":4671,"##갸":4672,"##흔":4673,"##뇸":4674,"##👍":4675,"##🏻":4676,"##💙":4677,"##렸":4678,"##더":4679,"##▼":4680,"##힘":4681,"##갯":4682,"##욱":4683,"##쎌":4684,"##틱":4685,"##멎":4686,"##잭":4687,"##❤":4688,"##댄":4689,"##뎠":4690,"##Ⅱ":4691,"##ㅂ":4692,"##ㄱ":4693,"##ㅅ":4694,"##ㄷ":4695,"##죽":4696,"##곤":4697,"##쌈":4698,"##궁":4699,"##갈":4700,"##료":4701,"##묻":4702,"##색":4703,"##째":4704,"##Ⅳ":4705,"##복":4706,"##→":4707,"##클":4708,"##접":4709,"##😛":4710,"##플":4711,"##텍":4712,"##걸":4713,"##잇":4714,"##랫":4715,"##멍":4716,"##밥":4717,"##폭":4718,"##폐":4719,"##좁":4720,"##센":4721,"##첸":4722,"##댕":4723,"##큐":4724,"##랗":4725,"##꽝":4726,"##렛":4727,"##콩":4728,"##깍":4729,"##ㅃ":4730,"##い":4731,"##て":4732,"##か":4733,"##탁":4734,"##폴":4735,"##받":4736,"##였":4737,"##쌔":4738,"##충":4739,"##혜":4740,"##ㄴ":4741,"##렁":4742,"##렐":4743,"##짱":4744,"##뜩":4745,"##뭉":4746,"##ь":4747,"##앱":4748,"##졸":4749,"##셧":4750,"##슴":4751,"##즉":4752,"##졌":4753,"##펩":4754,"##콘":4755,"##꼬":4756,"##눔":4757,"##홈":4758,"##몬":4759,"##륜":4760,"##죠":4761,"##빌":4762,"##п":4763,"##존":4764,"##른":4765,"##쇼":4766,"##탑":4767,"##념":4768,"##렬":4769,"##꾹":4770,"##딸":4771,"##팬":4772,"##덩":4773,"##냥":4774,"##특":4775,"##🙌":4776,"##묵":4777,"##ᄒ":4778,"##땅":4779,"##벽":4780,"##올":4781,"##밟":4782,"##깨":4783,"##옷":4784,"##살":4785,"##뇌":4786,"##촬":4787,"##텐":4788,"##볶":4789,"##벼":4790,"##퀴":4791,"##놈":4792,"##컷":4793,"##뜨":4794,"##쪽":4795,"##겡":4796,"##녹":4797,"##💛":4798,"##블":4799,"##깐":4800,"##완":4801,"##쥐":4802,"##쭙":4803,"##🌿":4804,"##횡":4805,"##룡":4806,"##😳":4807,"##💜":4808,"##싱":4809,"##누":4810,"##넷":4811,"##엌":4812,"##쉽":4813,"##런":4814,"##며":4815,"##례":4816,"##솔":4817,"##킴":4818,"##😝":4819,"##던":4820,"##절":4821,"##🎶":4822,"##줌":4823,"##허":4824,"##샤":4825,"##콕":4826,"##짐":4827,"##겐":4828,"##릴":4829,"##깡":4830,"##ㄲ":4831,"##왜":4832,"##봄":4833,"##넘":4834,"##좋":4835,"##깬":4836,"##🤣":4837,"##😂":4838,"##멘":4839,"##뽀":4840,"##💚":4841,"##👀":4842,"##💖":4843,"##튜":4844,"##룽":4845,"##덜":4846,"##젝":4847,"##빔":4848,"##얄":4849,"##맥":4850,"##뒤":4851,"##혐":4852,"##첩":4853,"##뮬":4854,"##룩":4855,"##ㅎ":4856,"##낌":4857,"##쁨":4858,"##뉘":4859,"##🧡":4860,"##댔":4861,"##쭉":4862,"##빵":4863,"##렴":4864,"##켓":4865,"##덧":4866,"##섯":4867,"##때":4868,"##꾼":4869,"##뒷":4870,"##똑":4871,"##같":4872,"##컵":4873,"##압":4874,"##솜":4875,"##굼":4876,"##콤":4877,"##앤":4878,"##논":4879,"##된":4880,"##빕":4881,"##틀":4882,"##휘":4883,"##늬":4884,"##돛":4885,"##の":4886,"##끼":4887,"##텟":4888,"##췌":4889,"##칭":4890,"##뿌":4891,"##😍":4892,"##🥰":4893,"##찻":4894,"##뻗":4895,"##딘":4896,"##뮤":4897,"##풋":4898,"##볼":4899,"##흉":4900,"##롱":4901,"##왈":4902,"##펜":4903,"##킷":4904,"##흠":4905,"##😄":4906,"##쿵":4907,"##잖":4908,"##💦":4909,"##젤":4910,"##롬":4911,"##찔":4912,"##싸":4913,"##첨":4914,"##に":4915,"##❗":4916,"##잠":4917,"##옌":4918,"##툴":4919,"##델":4920,"##샘":4921,"##탐":4922,"##탄":4923,"##낚":4924,"##릉":4925,"##숫":4926,"##즙":4927,"##욤":4928,"##줏":4929,"##칙":4930,"##ㅕ":4931,"##봤":4932,"##룬":4933,"##퀘":4934,"##룰":4935,"##글":4936,"##햇":4937,"##잎":4938,"##털":4939,"##챤":4940,"##얼":4941,"##찌":4942,"##펠":4943,"##꺽":4944,"##붓":4945,"##뱀":4946,"##갤":4947,"##웰":4948,"##칸":4949,"##궤":4950,"##😱":4951,"##😭":4952,"##≪":4953,"##💪":4954,"##쥘":4955,"##것":4956,"##졍":4957,"##탓":4958,"##💕":4959,"##🙈":4960,"##끌":4961,"##밭":4962,"##썽":4963,"##냉":4964,"##혹":4965,"##빅":4966,"##럿":4967,"##즘":4968,"##💓":4969,"##슐":4970,"##륙":4971,"##십":4972,"##ㅤ":4973,"##낼":4974,"##쭈":4975,"##홋":4976,"##돈":4977,"##팡":4978,"##윈":4979,"##갔":4980,"##턱":4981,"##렉":4982,"##눕":4983,"##왔":4984,"##싫":4985,"##랄":4986,"##듐":4987,"##큭":4988,"##곰":4989,"##릿":4990,"##딩":4991,"##ㅉ":4992,"##큰":4993,"##써":4994,"##놨":4995,"##템":4996,"##착":4997,"##겟":4998,"##앵":4999,"##끗":5000,"##삶":5001,"##😃":5002,"##떼":5003,"##껌":5004,"##둔":5005,"##썸":5006,"##겹":5007,"##△":5008,"##됨":5009,"##략":5010,"##롯":5011,"##겠":5012,"##샹":5013,"##셀":5014,"##높":5015,"##◇":5016,"##▣":5017,"##젓":5018,"##♡":5019,"##렵":5020,"##궜":5021,"##곽":5022,"##뇨":5023,"##🖤":5024,"##셰":5025,"##윳":5026,"##🤗":5027,"##쥔":5028,"##듀":5029,"##×":5030,"##즁":5031,"##낭":5032,"##캠":5033,"##닭":5034,"##넹":5035,"##륭":5036,"##😋":5037,"##끄":5038,"##녕":5039,"##쳣":5040,"##칫":5041,"##랭":5042,"##엉":5043,"##멀":5044,"##눅":5045,"##뜸":5046,"##쏘":5047,"##값":5048,"##핀":5049,"##헝":5050,"##뤼":5051,"##밴":5052,"##₩":5053,"##멋":5054,"##맡":5055,"##덤":5056,"##셉":5057,"##🤭":5058,"##④":5059,"##⑨":5060,"##⑦":5061,"##¹":5062,"##눌":5063,"##켰":5064,"##픽":5065,"##빛":5066,"##믹":5067,"##걔":5068,"##뽑":5069,"##줘":5070,"##갱":5071,"##냈":5072,"##못":5073,"##죵":5074,"##듬":5075,"##팀":5076,"##뎬":5077,"##＋":5078,"##빤":5079,"##꼼":5080,"##걀":5081,"##뉴":5082,"##켄":5083,"##빡":5084,"##뢰":5085,"##덮":5086,"##첼":5087,"##뷰":5088,"##잊":5089,"##몸":5090,"##츨":5091,"##숨":5092,"##껏":5093,"##슘":5094,"##핑":5095,"##엠":5096,"##컴":5097,"##셩":5098,"##깝":5099,"##얀":5100,"##쳤":5101,"##렘":5102,"##숭":5103,"##멧":5104,"##틸":5105,"##낫":5106,"##ん":5107,"##멸":5108,"##밤":5109,"##쫀":5110,"##꿈":5111,"##😚":5112,"##벨":5113,"##뚠":5114,"##툰":5115,"##엿":5116,"##Ⅰ":5117,"##️":5118,"##찐":5119,"##핫":5120,"##겼":5121,"##잴":5122,"##벙":5123,"##몰":5124,"##띠":5125,"##렙":5126,"##꼈":5127,"##😖":5128,"##쇠":5129,"##췬":5130,"##칠":5131,"##삭":5132,"##웠":5133,"##뎅":5134,"##옵":5135,"##딱":5136,"##괄":5137,"##쥬":5138,"##츈":5139,"##깔":5140,"##맹":5141,"##뇽":5142,"##젖":5143,"##쿨":5144,"##짝":5145,"##쩍":5146,"##■":5147,"##□":5148,"##넥":5149,"##컨":5150,"##듯":5151,"##룸":5152,"##꼭":5153,"##큘":5154,"##뀨":5155,"##냘":5156,"##롭":5157,"##있":5158,"##똥":5159,"##므":5160,"##쁘":5161,"##👏":5162,"##흑":5163,"##갖":5164,"##씽":5165,"##↑":5166,"##↓":5167,"##▷":5168,"##멜":5169,"##댜":5170,"##텀":5171,"##쉴":5172,"##ㅐ":5173,"##넨":5174,"##💃":5175,"##짬":5176,"##뽕":5177,"##젯":5178,"##귤":5179,"##킬":5180,"##빨":5181,"##÷":5182,"##톡":5183,"##찍":5184,"##랍":5185,"##띵":5186,"##뽈":5187,"##곱":5188,"##쑤":5189,"##쪄":5190,"##닝":5191,"##빠":5192,"##쑥":5193,"##갰":5194,"##먀":5195,"##ㅗ":5196,"##↘":5197,"##↙":5198,"##🙏":5199,"##츤":5200,"##폿":5201,"##윅":5202,"##팜":5203,"##쌍":5204,"##톈":5205,"##톰":5206,"##닛":5207,"##😀":5208,"##🌸":5209,"##툼":5210,"##헉":5211,"##홉":5212,"##캣":5213,"##궈":5214,"##숲":5215,"##빗":5216,"##괭":5217,"##둣":5218,"##즌":5219,"##🙄":5220,"##딴":5221,"##녜":5222,"##ㅔ":5223,"##팥":5224,"##댈":5225,"##쌀":5226,"##엾":5227,"##끝":5228,"##섰":5229,"##쯔":5230,"##펴":5231,"##킥":5232,"##퓨":5233,"##🍫":5234,"##긔":5235,"##쫄":5236,"##눙":5237,"##늦":5238,"##🌟":5239,"##셨":5240,"##읽":5241,"##꿩":5242,"##꾀":5243,"##쪼":5244,"##🐷":5245,"##😢":5246,"##삽":5247,"##뷴":5248,"##밝":5249,"##렇":5250,"##엑":5251,"##뿅":5252,"##께":5253,"##윽":5254,"##낄":5255,"##핍":5256,"##믈":5257,"##ㅊ":5258,"##겅":5259,"##늉":5260,"##늑":5261,"##텨":5262,"##큼":5263,"##샬":5264,"##🙂":5265,"##꿍":5266,"##렝":5267,"##웁":5268,"##뻔":5269,"##셸":5270,"##쾅":5271,"##쾰":5272,"##햄":5273,"##땡":5274,"##짭":5275,"##굉":5276,"##첫":5277,"##챘":5278,"##녘":5279,"##깽":5280,"##컬":5281,"##🍞":5282,"##흘":5283,"##낱":5284,"##볕":5285,"##믄":5286,"##많":5287,"##탱":5288,"##꼽":5289,"##펑":5290,"##훌":5291,"##싹":5292,"##꽈":5293,"##퍽":5294,"##밑":5295,"##씻":5296,"##겉":5297,"##꿔":5298,"##겻":5299,"##듦":5300,"##Ⅲ":5301,"##썰":5302,"##쿼":5303,"##ニ":5304,"##ー":5305,"##ン":5306,"##😎":5307,"##▽":5308,"##짤":5309,"##픈":5310,"##🎁":5311,"##븐":5312,"##뀌":5313,"##🤩":5314,"##ㅆ":5315,"##퉁":5316,"##👈":5317,"##👧":5318,"##샅":5319,"##⑧":5320,"##죌":5321,"##뭅":5322,"##왓":5323,"##🍓":5324,"##춰":5325,"##뱃":5326,"##엎":5327,"##츄":5328,"##뤄":5329,"##됏":5330,"##푼":5331,"##넴":5332,"##삐":5333,"##앨":5334,"##콰":5335,"##싼":5336,"##뎌":5337,"##떡":5338,"##◈":5339,"##펫":5340,"##콥":5341,"##쟝":5342,"##밸":5343,"##팩":5344,"##🍴":5345,"##깁":5346,"##🤤":5347,"##👊":5348,"##ㅛ":5349,"##💘":5350,"##칩":5351,"##㎡":5352,"##✨":5353,"##랐":5354,"##뻥":5355,"##튀":5356,"##횟":5357,"##🙆":5358,"##멈":5359,"##쉘":5360,"##찜":5361,"##잼":5362,"##홰":5363,"##닿":5364,"##줬":5365,"##뿔":5366,"##꽤":5367,"##돼":5368,"##밋":5369,"##괘":5370,"##랬":5371,"##벗":5372,"##씀":5373,"##겋":5374,"##윌":5375,"##섞":5376,"##👋":5377,"##듸":5378,"##셴":5379,"##り":5380,"##셈":5381,"##팠":5382,"##캇":5383,"##🤦":5384,"##꿎":5385,"##탠":5386,"##딜":5387,"##끽":5388,"##깅":5389,"##깜":5390,"##듈":5391,"##벚":5392,"##넝":5393,"##섹":5394,"##뚱":5395,"##씬":5396,"##●":5397,"##헬":5398,"##롄":5399,"##챈":5400,"##쮸":5401,"##👩":5402,"##る":5403,"##앞":5404,"##홧":5405,"##훔":5406,"##쁜":5407,"##밈":5408,"##α":5409,"##β":5410,"##긍":5411,"##닻":5412,"##헷":5413,"##및":5414,"##틈":5415,"##쓸":5416,"##솟":5417,"##③":5418,"##⑤":5419,"##짖":5420,"##샵":5421,"##🏃":5422,"##괜":5423,"##멕":5424,"##핸":5425,"##눴":5426,"##쯤":5427,"##닙":5428,"##횃":5429,"##쭝":5430,"##뚤":5431,"##쩨":5432,"##눠":5433,"##샐":5434,"##돋":5435,"##땐":5436,"##뤘":5437,"##숏":5438,"##봇":5439,"##맙":5440,"##킁":5441,"##쥴":5442,"##곶":5443,"##믿":5444,"##썬":5445,"##딕":5446,"##🐶":5447,"##옴":5448,"##쩌":5449,"##냅":5450,"##뛰":5451,"##돠":5452,"##쩔":5453,"##딥":5454,"##퓌":5455,"##돔":5456,"##｜":5457,"##㈑":5458,"##🌷":5459,"##깰":5460,"##퀼":5461,"##펭":5462,"##섀":5463,"##뫼":5464,"##묏":5465,"##륄":5466,"##딪":5467,"##떨":5468,"##샌":5469,"##귓":5470,"##낀":5471,"##│":5472,"##헴":5473,"##폼":5474,"##퓸":5475,"##쎈":5476,"##웟":5477,"##얌":5478,"##뿍":5479,"##쫌":5480,"##좃":5481,"##휼":5482,"##칵":5483,"##렀":5484,"##훙":5485,"##띤":5486,"##⋅":5487,"##⠀":5488,"##☆":5489,"##뺀":5490,"##쉰":5491,"##😌":5492,"##😏":5493,"##됴":5494,"##뮈":5495,"##윗":5496,"##끊":5497,"##깻":5498,"##떻":5499,"##쓴":5500,"##댐":5501,"##★":5502,"##😙":5503,"##맸":5504,"##톳":5505,"##텝":5506,"##땜":5507,"##귈":5508,"##쌩":5509,"##삿":5510,"##쿤":5511,"##갇":5512,"##썹":5513,"##늙":5514,"##캘":5515,"##넋":5516,"##😉":5517,"##켐":5518,"##웹":5519,"##빼":5520,"##▫":5521,"##옐":5522,"##뾰":5523,"##콴":5524,"##걍":5525,"##덫":5526,"##옆":5527,"##냔":5528,"##윰":5529,"##잤":5530,"##잣":5531,"##릎":5532,"##찼":5533,"##쌉":5534,"##쥰":5535,"##띔":5536,"##😅":5537,"##녁":5538,"##펨":5539,"##햅":5540,"##웩":5541,"##힉":5542,"##찾":5543,"##넛":5544,"##ㄸ":5545,"##°":5546,"##슛":5547,"##짠":5548,"##훗":5549,"##훠":5550,"##훤":5551,"##훨":5552,"##뿜":5553,"##☞":5554,"##켤":5555,"##헙":5556,"##～":5557,"##숑":5558,"##텡":5559,"##빚":5560,"##롸":5561,"##👶":5562,"##쨩":5563,"##팍":5564,"##☎":5565,"##쟌":5566,"##슥":5567,"##캉":5568,"##갚":5569,"##냄":5570,"##흙":5571,"##궐":5572,"##뻘":5573,"##벵":5574,"##돕":5575,"##괌":5576,"##깊":5577,"##랖":5578,"##륵":5579,"##벳":5580,"##꼰":5581,"##둬":5582,"##셍":5583,"##팸":5584,"##쉐":5585,"##윙":5586,"##펄":5587,"##푹":5588,"##뷸":5589,"##🍳":5590,"##즐":5591,"##헿":5592,"##̥":5593,"##쟈":5594,"##👉":5595,"##맵":5596,"##숯":5597,"##껍":5598,"##몇":5599,"##탬":5600,"##갓":5601,"##퀀":5602,"##렷":5603,"##톱":5604,"##츰":5605,"##꽹":5606,"##뎁":5607,"##⊙":5608,"##쳇":5609,"##뜀":5610,"##넉":5611,"##욘":5612,"##튬":5613,"##◎":5614,"##컹":5615,"##´":5616,"##덥":5617,"##펐":5618,"##늪":5619,"##굶":5620,"##맴":5621,"##쨍":5622,"##캡":5623,"##짚":5624,"##걷":5625,"##쐐":5626,"##헛":5627,"##쌓":5628,"##좦":5629,"##❣":5630,"##캥":5631,"##☕":5632,"##잽":5633,"##뜰":5634,"##헐":5635,"##땠":5636,"##챠":5637,"##켕":5638,"##봣":5639,"##갉":5640,"##쐬":5641,"##붐":5642,"##쏙":5643,"##듣":5644,"##뜯":5645,"##훅":5646,"##ⓒ":5647,"##섶":5648,"##튕":5649,"##얕":5650,"##🎉":5651,"##뀜":5652,"##눗":5653,"##😥":5654,"##좇":5655,"##솥":5656,"##빻":5657,"##껄":5658,"##슌":5659,"##㈜":5660,"##삯":5661,"##돗":5662,"##늠":5663,"##릇":5664,"##툭":5665,"##웜":5666,"##뀐":5667,"##∼":5668,"##혓":5669,"##웍":5670,"##놉":5671,"##챙":5672,"##촤":5673,"##▶":5674,"##쌤":5675,"##딤":5676,"##ⓑ":5677,"##놋":5678,"##핥":5679,"##맣":5680,"##짢":5681,"##갠":5682,"##뛸":5683,"##녔":5684,"##젊":5685,"##촵":5686,"##캬":5687,"##붉":5688,"##뛴":5689,"##펌":5690,"##탔":5691,"##캔":5692,"##쯧":5693,"##닦":5694,"##겜":5695,"##헹":5696,"##벡":5697,"##뺨":5698,"##꿉":5699,"##쒸":5700,"##◆":5701,"##솨":5702,"##팟":5703,"##끓":5704,"##뜻":5705,"##쵸":5706,"##▲":5707,"##쉼":5708,"##◀":5709,"##⑵":5710,"##⑶":5711,"##씰":5712,"##깎":5713,"##촐":5714,"##²":5715,"##굳":5716,"##힙":5717,"##씁":5718,"##춧":5719,"##툇":5720,"##뱌":5721,"##켠":5722,"##삔":5723,"##헥":5724,"##귄":5725,"##곗":5726,"##₂":5727,"##땀":5728,"##힝":5729,"##뵈":5730,"##②":5731,"##흰":5732,"##뭔":5733,"##쩜":5734,"##캄":5735,"##흄":5736,"##꺄":5737,"##핼":5738,"##됐":5739,"##뮴":5740,"##둡":5741,"##숴":5742,"##쏭":5743,"##캑":5744,"##않":5745,"##덱":5746,"##♣":5747,"##떤":5748,"##슝":5749,"##펼":5750,"##─":5751,"##㈐":5752,"##뻑":5753,"##똬":5754,"##욜":5755,"##숟":5756,"##뜬":5757,"##쑨":5758,"##㉢":5759,"##뎃":5760,"##뷔":5761,"##깥":5762,"##탉":5763,"##뎀":5764,"##졋":5765,"##흣":5766,"##좡":5767,"##쁩":5768,"##쫓":5769,"##쨔":5770,"##앉":5771,"##튄":5772,"##콧":5773,"##넓":5774,"##컥":5775,"##쿡":5776,"##밌":5777,"##닫":5778,"##뒀":5779,"##맏":5780,"##＝":5781,"##ｇ":5782,"##쉔":5783,"##탭":5784,"##샴":5785,"##쏠":5786,"##깄":5787,"##①":5788,"##넵":5789,"##찮":5790,"##쒀":5791,"##☺":5792,"##튈":5793,"##믐":5794,"##젬":5795,"##샜":5796,"##๑":5797,"##뭡":5798,"##̣":5799,"##앓":5800,"##챗":5801,"##뻬":5802,"##죗":5803,"##옙":5804,"##픕":5805,"##뤽":5806,"##얗":5807,"##낵":5808,"##찡":5809,"##뱁":5810,"##맺":5811,"##쌕":5812,"##딧":5813,"##왑":5814,"##싣":5815,"##겪":5816,"##힛":5817,"##뭐":5818,"##뵙":5819,"##옳":5820,"##팰":5821,"##뭄":5822,"##떵":5823,"##틔":5824,"##얍":5825,"##┃":5826,"##얽":5827,"##떳":5828,"##촛":5829,"##꽥":5830,"##뇰":5831,"##씌":5832,"##둠":5833,"##옇":5834,"##찝":5835,"##엣":5836,"##퀄":5837,"##밧":5838,"##쩐":5839,"##✌":5840,"##챱":5841,"##Ⅴ":5842,"##잌":5843,"##낯":5844,"##핏":5845,"##앰":5846,"##쭐":5847,"##썼":5848,"##닢":5849,"##＜":5850,"##빽":5851,"##곧":5852,"##🙋":5853,"##떴":5854,"##맑":5855,"##넣":5856,"##왤":5857,"##맬":5858,"##뼛":5859,"##냇":5860,"##탯":5861,"##첵":5862,"##얏":5863,"##≫":5864,"##콸":5865,"##욧":5866,"##멩":5867,"##뻤":5868,"##빱":5869,"##멓":5870,"##뱉":5871,"##꿇":5872,"##썅":5873,"##춥":5874,"##왼":5875,"##숩":5876,"##벰":5877,"##뮌":5878,"##얇":5879,"##ｍ":5880,"##볏":5881,"##뽐":5882,"##🐽":5883,"##봅":5884,"##쩝":5885,"##좆":5886,"##퉈":5887,"##굽":5888,"##겄":5889,"##궂":5890,"##〓":5891,"##랠":5892,"##삵":5893,"##꼿":5894,"##휙":5895,"##큽":5896,"##쑹":5897,"##팁":5898,"##팻":5899,"##♠":5900,"##쭌":5901,"##벧":5902,"##볍":5903,"##👻":5904,"##꼐":5905,"##푀":5906,"##μ":5907,"##씸":5908,"##됬":5909,"##췄":5910,"##̈":5911,"##삥":5912,"##닳":5913,"##³":5914,"##끕":5915,"##￦":5916,"##슭":5917,"##쿰":5918,"##숱":5919,"##퀸":5920,"##윷":5921,"##흩":5922,"##낏":5923,"##낳":5924,"##튠":5925,"##볐":5926,"##갛":5927,"##━":5928,"##±":5929,"##㎞":5930,"##팎":5931,"##졔":5932,"##쨌":5933,"##얘":5934,"##캅":5935,"##찹":5936,"##읏":5937,"##샛":5938,"##㎜":5939,"##켑":5940,"##핌":5941,"##쉈":5942,"##륀":5943,"##쿱":5944,"##쓱":5945,"##빰":5946,"##쬐":5947,"##헵":5948,"##씩":5949,"##끙":5950,"##㉠":5951,"##귐":5952,"##텁":5953,"##멤":5954,"##릏":5955,"##℃":5956,"##뤠":5957,"##냑":5958,"##∙":5959,"##딨":5960,"##뫄":5961,"##짙":5962,"##얹":5963,"##＞":5964,"##몫":5965,"##웡":5966,"##쇳":5967,"##쩡":5968,"##읜":5969,"##긱":5970,"##엡":5971,"##썻":5972,"##ⓐ":5973,"##짧":5974,"##뿡":5975,"##샥":5976,"##낍":5977,"##뚫":5978,"##삘":5979,"##좔":5980,"##섣":5981,"##앴":5982,"##떄":5983,"##듄":5984,"##탤":5985,"##옛":5986,"##챌":5987,"##넙":5988,"##곁":5989,"##탸":5990,"##➡":5991,"##낑":5992,"##갹":5993,"##굵":5994,"##퉤":5995,"##뀔":5996,"##깟":5997,"##뎐":5998,"##뒹":5999,"##뼉":6000,"##뗐":6001,"##샀":6002,"##쟤":6003,"##쭤":6004,"##빳":6005,"##냠":6006,"##틋":6007,"##뺑":6008,"##껫":6009,"##갬":6010,"##뉜":6011,"##띄":6012,"##윔":6013,"##쪘":6014,"##묶":6015,"##쏟":6016,"##쳉":6017,"##쳔":6018,"##굣":6019,"##덟":6020,"##셤":6021,"##앳":6022,"##젭":6023,"##밉":6024,"##├":6025,"##펍":6026,"##딛":6027,"##ℓ":6028,"##㎝":6029,"##떫":6030,"##됫":6031,"##휀":6032,"##뗀":6033,"##퓰":6034,"##뮨":6035,"##옮":6036,"##ｔ":6037,"##뗏":6038,"##짹":6039,"##쌌":6040,"##뜹":6041,"##휠":6042,"##탰":6043,"##뵤":6044,"##찢":6045,"##㉰":6046,"##봬":6047,"##폈":6048,"##쏴":6049,"##뒈":6050,"##쉿":6051,"##뙇":6052,"##쉑":6053,"##쭘":6054,"##멱":6055,"##킵":6056,"##뻣":6057,"##뺏":6058,"##꿋":6059,"##㉣":6060,"##㉡":6061,"##꿨":6062,"##폄":6063,"##줍":6064,"##쫑":6065,"##홱":6066,"##뷜":6067,"##뗄":6068,"##꺅":6069,"##몹":6070,"##퀑":6071,"##뙤":6072,"##잰":6073,"##뢴":6074,"##띈":6075,"##띌":6076,"##룀":6077,"##갗":6078,"##뺌":6079,"##솅":6080,"##낟":6081,"##줫":6082,"##튤":6083,"##뉠":6084,"##엮":6085,"##쉭":6086,"##뵌":6087,"##푯":6088,"##챕":6089,"##쨋":6090,"##꺾":6091,"##▪":6092,"##옻":6093,"##뺄":6094,"##깠":6095,"##컸":6096,"##텼":6097,"##칡":6098,"##댑":6099,"##앎":6100,"##횔":6101,"##콱":6102,"##땄":6103,"##촘":6104,"##뺐":6105,"##♀":6106,"##⇒":6107,"##띨":6108,"##땃":6109,"##휜":6110,"##붑":6111,"##갭":6112,"##⭐":6113,"##엷":6114,"##₁":6115,"##셌":6116,"##쑈":6117,"##짊":6118,"##㎖":6119,"##죤":6120,"##뭘":6121,"##퉜":6122,"##쏜":6123,"##팹":6124,"##뵐":6125,"##꽉":6126,"##✔":6127,"##껀":6128,"##얻":6129,"##↔":6130,"##퀵":6131,"##멥":6132,"##츳":6133,"##좥":6134,"##텃":6135,"##㈏":6136,"##⑷":6137,"##뀝":6138,"##잿":6139,"##켁":6140,"##㎏":6141,"##㏄":6142,"##몄":6143,"##빴":6144,"##긁":6145,"##홑":6146,"##삑":6147,"##쫙":6148,"##엊":6149,"##웸":6150,"##훑":6151,"##📌":6152,"##잃":6153,"##윕":6154,"##땔":6155,"##팼":6156,"##붇":6157,"##슉":6158,"##♂":6159,"##곯":6160,"##☏":6161,"##쌘":6162,"##묽":6163,"##돤":6164,"##잦":6165,"##뭍":6166,"##뼘":6167,"##뵀":6168,"##넸":6169,"##겊":6170,"##겝":6171,"##찧":6172,"##㈔":6173,"##꿰":6174,"##뭣":6175,"##숄":6176,"##넜":6177,"##㏊":6178,"##뮐":6179,"##텄":6180,"##컫":6181,"##쐈":6182,"##긿":6183,"##캤":6184,"##튿":6185,"##쇤":6186,"##㉯":6187,"##깼":6188,"##㎎":6189,"##낡":6190,"##™":6191,"##옭":6192,"##㈎":6193,"##휑":6194,"##㎥":6195,"##껐":6196,"##쨈":6197,"##└":6198,"##솎":6199,"##㎉":6200,"##㎍":6201,"##㉮":6202,"##괸":6203,"##왠":6204,"##읊":6205,"##©":6206,"##짰":6207,"##＄":6208,"##퀭":6209,"##쫒":6210,"##씐":6211,"##옅":6212,"##땋":6213,"으로":6214,"에서":6215,"##니다":6216,"한다":6217,"##00":6218,"지만":6219,"에게":6220,"라고":6221,"습니다":6222,"까지":6223,"20":6224,"면서":6225,"사람":6226,"다고":6227,"다는":6228,"는데":6229,"대한":6230,"아니":6231,"지난":6232,"우리":6233,"때문":6234,"라는":6235,"된다":6236,"위해":6237,"19":6238,"그러":6239,"201":6240,"부터":6241,"10":6242,"생각":6243,"한국":6244,"경우":6245,"문제":6246,"보다":6247,"대해":6248,"지역":6249,"200":6250,"시간":6251,"그리":6252,"정부":6253,"다른":6254,"이나":6255,"해야":6256,"미국":6257,"아이":6258,"가능":6259,"통해":6260,"함께":6261,"관계":6262,"시장":6263,"이상":6264,"서울":6265,"따라":6266,"사용":6267,"사업":6268,"그런":6269,"대표":6270,"기업":6271,"하나":6272,"시작":6273,"가지":6274,"가장":6275,"위원":6276,"경제":6277,"사실":6278,"사회":6279,"##통령":6280,"도록":6281,"정도":6282,"대통령":6283,"만들":6284,"중국":6285,"입니다":6286,"세계":6287,"그러나":6288,"필요":6289,"처럼":6290,"그리고":6291,"지금":6292,"해서":6293,"이번":6294,"교육":6295,"관련":6296,"경기":6297,"이후":6298,"이런":6299,"12":6300,"는다":6301,"의원":6302,"연구":6303,"다시":6304,"으며":6305,"으면":6306,"11":6307,"밝혔":6308,"들어":6309,"지원":6310,"위한":6311,"모두":6312,"상황":6313,"사이":6314,"정치":6315,"프로":6316,"조사":6317,"국민":6318,"합니다":6319,"일본":6320,"그렇":6321,"어서":6322,"거나":6323,"그래":6324,"국가":6325,"자신":6326,"다가":6327,"모든":6328,"##er":6329,"후보":6330,"결과":6331,"30":6332,"계획":6333,"##스트":6334,"대학":6335,"문화":6336,"투자":6337,"15":6338,"현재":6339,"다음":6340,"많이":6341,"특히":6342,"개발":6343,"기술":6344,"경찰":6345,"지난해":6346,"최근":6347,"신의":6348,"어요":6349,"동안":6350,"학교":6351,"이제":6352,"그것":6353,"민주":6354,"진행":6355,"회의":6356,"는지":6357,"어떤":6358,"국내":6359,"정보":6360,"이용":6361,"새로":6362,"18":6363,"나라":6364,"마음":6365,"이미":6366,"전문":6367,"이렇":6368,"관리":6369,"보이":6370,"정책":6371,"이유":6372,"모습":6373,"주장":6374,"나타":6375,"활동":6376,"금융":6377,"##on":6378,"과정":6379,"또한":6380,"이야":6381,"이날":6382,"설명":6383,"따르":6384,"기록":6385,"##대로":6386,"회사":6387,"사건":6388,"올해":6389,"##니까":6390,"대상":6391,"평가":6392,"결정":6393,"영화":6394,"너무":6395,"처음":6396,"중요":6397,"북한":6398,"100":6399,"##레이":6400,"관계자":6401,"이야기":6402,"한다는":6403,"당시":6404,"기자":6405,"##부터":6406,"여러":6407,"산업":6408,"학생":6409,"라며":6410,"운영":6411,"도시":6412,"##비스":6413,"다면":6414,"##an":6415,"수도":6416,"다양":6417,"나오":6418,"없이":6419,"##in":6420,"여기":6421,"바로":6422,"자리":6423,"국회":6424,"시키":6425,"여성":6426,"16":6427,"어떻":6428,"같이":6429,"##시아":6430,"13":6431,"상태":6432,"명의":6433,"내용":6434,"업체":6435,"새로운":6436,"계속":6437,"돌아":6438,"아무":6439,"서비스":6440,"선거":6441,"발생":6442,"자의":6443,"기준":6444,"##운데":6445,"예정":6446,"발표":6447,"##주의":6448,"알려":6449,"스타":6450,"오늘":6451,"가격":6452,"그녀":6453,"일부":6454,"의미":6455,"만큼":6456,"자기":6457,"##어나":6458,"보여":6459,"##으며":6460,"14":6461,"국제":6462,"선수":6463,"##인다":6464,"확인":6465,"제품":6466,"가운데":6467,"기관":6468,"포함":6469,"사랑":6470,"사진":6471,"방법":6472,"피해":6473,"방송":6474,"25":6475,"인터":6476,"판매":6477,"17":6478,"이름":6479,"삼성":6480,"더라":6481,"생활":6482,"아닌":6483,"인간":6484,"제공":6485,"부분":6486,"참여":6487,"199":6488,"그래서":6489,"규모":6490,"상대":6491,"어야":6492,"직접":6493,"떨어":6494,"역사":6495,"등의":6496,"달러":6497,"회장":6498,"물론":6499,"지방":6500,"추진":6501,"수준":6502,"요구":6503,"교수":6504,"환경":6505,"운동":6506,"가족":6507,"어려":6508,"증가":6509,"개인":6510,"역시":6511,"효과":6512,"준비":6513,"##000":6514,"##ar":6515,"경쟁":6516,"일반":6517,"입장":6518,"실제":6519,"분석":6520,"인데":6521,"이러":6522,"지적":6523,"##랜드":6524,"노동":6525,"50":6526,"인지":6527,"##en":6528,"##머니":6529,"은행":6530,"기대":6531,"공격":6532,"현대":6533,"이어":6534,"어느":6535,"##리아":6536,"구성":6537,"관심":6538,"시민":6539,"위원회":6540,"##or":6541,"영향":6542,"감독":6543,"공개":6544,"아직":6545,"결국":6546,"게임":6547,"성장":6548,"구조":6549,"전체":6550,"기간":6551,"생산":6552,"대로":6553,"친구":6554,"여자":6555,"한다고":6556,"최고":6557,"사고":6558,"자동":6559,"변화":6560,"마련":6561,"소비":6562,"소리":6563,"대해서":6564,"추가":6565,"행사":6566,"보인다":6567,"대부":6568,"등이":6569,"무엇":6570,"해도":6571,"##이트":6572,"성공":6573,"발전":6574,"강조":6575,"거의":6576,"##at":6577,"단체":6578,"그런데":6579,"##전히":6580,"자유":6581,"대의":6582,"책임":6583,"최대":6584,"전망":6585,"센터":6586,"또는":6587,"작품":6588,"이란":6589,"얘기":6590,"21":6591,"24":6592,"중심":6593,"이것":6594,"정말":6595,"인사":6596,"대부분":6597,"지나":6598,"부산":6599,"모르":6600,"강화":6601,"얼마":6602,"유지":6603,"##al":6604,"더욱":6605,"##버지":6606,"노력":6607,"특별":6608,"프로그":6609,"장관":6610,"로서":6611,"예상":6612,"##이스":6613,"수사":6614,"병원":6615,"존재":6616,"방식":6617,"한편":6618,"이해":6619,"공동":6620,"나가":6621,"대회":6622,"나온":6623,"지도":6624,"40":6625,"확대":6626,"##st":6627,"위해서":6628,"마다":6629,"경영":6630,"자체":6631,"프로그램":6632,"능력":6633,"선택":6634,"전국":6635,"그룹":6636,"주민":6637,"거래":6638,"역할":6639,"오후":6640,"남자":6641,"영국":6642,"누리":6643,"라면":6644,"어린":6645,"자연":6646,"22":6647,"정상":6648,"활용":6649,"시설":6650,"당신":6651,"건강":6652,"라도":6653,"만나":6654,"조직":6655,"##마트":6656,"국의":6657,"해당":6658,"검찰":6659,"기에":6660,"주택":6661,"건설":6662,"시대":6663,"제도":6664,"시스":6665,"개월":6666,"의해":6667,"상당":6668,"매우":6669,"##거리":6670,"기능":6671,"중앙":6672,"방문":6673,"하루":6674,"직원":6675,"대구":6676,"여행":6677,"외국":6678,"전략":6679,"보험":6680,"조금":6681,"인정":6682,"얼굴":6683,"니까":6684,"발견":6685,"해결":6686,"려고":6687,"23":6688,"##진다":6689,"분야":6690,"아서":6691,"올라":6692,"인가":6693,"가치":6694,"먼저":6695,"위원장":6696,"상품":6697,"전화":6698,"고객":6699,"주요":6700,"기본":6701,"정신":6702,"과학":6703,"드러":6704,"안전":6705,"미래":6706,"개선":6707,"마지":6708,"현실":6709,"##린다":6710,"로부터":6711,"시스템":6712,"거리":6713,"이루":6714,"적용":6715,"주의":6716,"등장":6717,"해외":6718,"시즌":6719,"대비":6720,"마지막":6721,"찾아":6722,"지지":6723,"##소리":6724,"내려":6725,"현장":6726,"##동안":6727,"관광":6728,"자동차":6729,"행정":6730,"머리":6731,"지속":6732,"밖에":6733,"아버지":6734,"아파":6735,"처리":6736,"보호":6737,"상승":6738,"계약":6739,"의견":6740,"통신":6741,"##으나":6742,"##ic":6743,"비롯":6744,"경험":6745,"혐의":6746,"카드":6747,"목표":6748,"보도":6749,"도움":6750,"조선":6751,"서로":6752,"고려":6753,"ㅋㅋ":6754,"유럽":6755,"##es":6756,"언론":6757,"27":6758,"26":6759,"위기":6760,"대신":6761,"마을":6762,"달리":6763,"##없이":6764,"공사":6765,"이전":6766,"위치":6767,"예산":6768,"어디":6769,"아들":6770,"28":6771,"들어가":6772,"판단":6773,"설치":6774,"작업":6775,"누구":6776,"스마트":6777,"198":6778,"실시":6779,"##라이":6780,"치료":6781,"비판":6782,"합의":6783,"전쟁":6784,"세상":6785,"장의":6786,"인천":6787,"아야":6788,"행동":6789,"는가":6790,"우려":6791,"##리스":6792,"위험":6793,"반대":6794,"##요일":6795,"부담":6796,"주인":6797,"##it":6798,"표현":6799,"공간":6800,"차이":6801,"민주당":6802,"려는":6803,"의사":6804,"업무":6805,"##어난":6806,"단계":6807,"행위":6808,"아파트":6809,"바람":6810,"인터넷":6811,"자료":6812,"##너지":6813,"으나":6814,"제작":6815,"사무":6816,"프랑":6817,"적극":6818,"##전자":6819,"기사":6820,"내년":6821,"집중":6822,"보내":6823,"##스터":6824,"나왔":6825,"기회":6826,"제대로":6827,"##he":6828,"성과":6829,"부족":6830,"느냐":6831,"자금":6832,"에선":6833,"평균":6834,"비용":6835,"음악":6836,"통합":6837,"차지":6838,"조정":6839,"협력":6840,"따라서":6841,"기존":6842,"동시":6843,"배우":6844,"시켜":6845,"앞서":6846,"정의":6847,"그냥":6848,"가까":6849,"대책":6850,"감사":6851,"만든":6852,"오전":6853,"아주":6854,"확보":6855,"어렵":6856,"동의":6857,"인해":6858,"광주":6859,"더라도":6860,"29":6861,"을까":6862,"우선":6863,"와의":6864,"##스로":6865,"논의":6866,"열린":6867,"결혼":6868,"##om":6869,"뉴스":6870,"음식":6871,"환자":6872,"안정":6873,"이사":6874,"연합":6875,"움직":6876,"출신":6877,"##른다":6878,"독일":6879,"보고":6880,"어머니":6881,"수익":6882,"공연":6883,"비해":6884,"##자리":6885,"인기":6886,"각각":6887,"방안":6888,"전문가":6889,"다만":6890,"공급":6891,"반면":6892,"인상":6893,"비교":6894,"성의":6895,"이뤄":6896,"제기":6897,"과거":6898,"분위":6899,"지구":6900,"60":6901,"데이":6902,"작가":6903,"사망":6904,"##el":6905,"그림":6906,"그대로":6907,"바라":6908,"보였":6909,"수출":6910,"검사":6911,"도입":6912,"##다는":6913,"논란":6914,"##무원":6915,"개혁":6916,"이동":6917,"모델":6918,"수가":6919,"차량":6920,"프랑스":6921,"스러":6922,"복지":6923,"대화":6924,"인식":6925,"스스로":6926,"디자":6927,"리그":6928,"사장":6929,"엄마":6930,"대출":6931,"2012":6932,"목소리":6933,"기억":6934,"목적":6935,"지난달":6936,"스럽":6937,"관한":6938,"전자":6939,"조치":6940,"의료":6941,"시행":6942,"TV":6943,"##레스":6944,"영업":6945,"##디어":6946,"선정":6947,"업계":6948,"오히":6949,"제시":6950,"현지":6951,"이르":6952,"분위기":6953,"오히려":6954,"브랜드":6955,"공식":6956,"언제":6957,"충분":6958,"이익":6959,"주변":6960,"참석":6961,"##인트":6962,"유명":6963,"시기":6964,"##이지":6965,"아래":6966,"청와":6967,"2013":6968,"예술":6969,"##민국":6970,"가진":6971,"매출":6972,"교통":6973,"##라인":6974,"소속":6975,"##le":6976,"글로":6977,"순간":6978,"금리":6979,"출시":6980,"##가지":6981,"일정":6982,"부모":6983,"신청":6984,"따른":6985,"바이":6986,"녀의":6987,"롯데":6988,"실제로":6989,"규정":6990,"가져":6991,"으로써":6992,"아요":6993,"조성":6994,"감소":6995,"분명":6996,"잘못":6997,"장애":6998,"상의":6999,"느낌":7000,"대한민국":7001,"재정":7002,"행복":7003,"국정":7004,"방향":7005,"핵심":7006,"기다":7007,"무슨":7008,"단지":7009,"도로":7010,"신문":7011,"부의":7012,"재판":7013,"간의":7014,"선생":7015,"고의":7016,"건물":7017,"글로벌":7018,"인도":7019,"LG":7020,"라이":7021,"소개":7022,"전혀":7023,"에너지":7024,"다르":7025,"청와대":7026,"나와":7027,"종합":7028,"네요":7029,"나타났":7030,"2010":7031,"비슷":7032,"가구":7033,"여전히":7034,"차례":7035,"31":7036,"전했":7037,"협의":7038,"질문":7039,"버리":7040,"얼마나":7041,"대응":7042,"2014":7043,"담당":7044,"요청":7045,"소비자":7046,"##ion":7047,"힘들":7048,"장기":7049,"나이":7050,"가입":7051,"면서도":7052,"제외":7053,"정당":7054,"인물":7055,"ㅋㅋㅋ":7056,"##is":7057,"가정":7058,"그동안":7059,"했으며":7060,"사의":7061,"됩니다":7062,"사라":7063,"주식":7064,"시험":7065,"더니":7066,"##어지":7067,"제주":7068,"대전":7069,"투표":7070,"도의":7071,"원인":7072,"연결":7073,"소득":7074,"그때":7075,"높이":7076,"2011":7077,"세요":7078,"공부":7079,"조건":7080,"##ou":7081,"진짜":7082,"검토":7083,"항공":7084,"여부":7085,"개정":7086,"사례":7087,"총리":7088,"노래":7089,"말씀":7090,"박근":7091,"70":7092,"SK":7093,"수입":7094,"##am":7095,"중소":7096,"의식":7097,"000":7098,"으로서":7099,"2000":7100,"인의":7101,"2015":7102,"정확":7103,"다니":7104,"전통":7105,"##아들":7106,"영상":7107,"부동":7108,"청소":7109,"훈련":7110,"시절":7111,"공무원":7112,"한테":7113,"개최":7114,"마치":7115,"전기":7116,"디자인":7117,"아침":7118,"희망":7119,"문학":7120,"각종":7121,"현상":7122,"러시아":7123,"으로부터":7124,"대형":7125,"으니":7126,"분기":7127,"일단":7128,"##이크":7129,"공장":7130,"197":7131,"알려졌":7132,"박근혜":7133,"제한":7134,"고자":7135,"어린이":7136,"참가":7137,"전시":7138,"##re":7139,"외교":7140,"승리":7141,"회복":7142,"반응":7143,"연기":7144,"강력":7145,"포인트":7146,"생명":7147,"교사":7148,"거기":7149,"내부":7150,"##기업":7151,"언급":7152,"##이션":7153,"주목":7154,"범죄":7155,"기획":7156,"변호":7157,"시도":7158,"피부":7159,"##어진":7160,"한다면":7161,"고용":7162,"속도":7163,"서의":7164,"기의":7165,"부동산":7166,"대선":7167,"걱정":7168,"협상":7169,"평화":7170,"체험":7171,"##어들":7172,"남성":7173,"##ol":7174,"##il":7175,"오래":7176,"오른":7177,"법원":7178,"##ing":7179,"등록":7180,"##디오":7181,"아마":7182,"불과":7183,"토론":7184,"체제":7185,"거든":7186,"혁신":7187,"지급":7188,"공공":7189,"덧붙":7190,"확실":7191,"살아":7192,"달라":7193,"단순":7194,"이곳":7195,"플레이":7196,"##학교":7197,"아시아":7198,"부인":7199,"제안":7200,"최종":7201,"구매":7202,"35":7203,"넘어":7204,"형태":7205,"신고":7206,"차원":7207,"본부":7208,"구체":7209,"프리":7210,"사상":7211,"##스크":7212,"진출":7213,"제의":7214,"여름":7215,"##BS":7216,"500":7217,"##다고":7218,"전환":7219,"수의":7220,"##나라":7221,"자원":7222,"규제":7223,"동물":7224,"그만":7225,"요즘":7226,"만드":7227,"어도":7228,"아름":7229,"##이드":7230,"세대":7231,"이미지":7232,"2009":7233,"체계":7234,"하락":7235,"반영":7236,"설립":7237,"스마트폰":7238,"정권":7239,"군사":7240,"타이":7241,"스포":7242,"청년":7243,"드라":7244,"전투":7245,"전달":7246,"불법":7247,"지요":7248,"지하":7249,"유치":7250,"수행":7251,"2008":7252,"80":7253,"어려운":7254,"시청":7255,"올림":7256,"무기":7257,"그럼":7258,"느끼":7259,"지식":7260,"본격":7261,"주로":7262,"자세":7263,"여야":7264,"고민":7265,"##수록":7266,"출연":7267,"펀드":7268,"올리":7269,"거부":7270,"당국":7271,"나무":7272,"자주":7273,"인구":7274,"지켜":7275,"민간":7276,"기념":7277,"의혹":7278,"외국인":7279,"증권":7280,"회담":7281,"비율":7282,"보유":7283,"자산":7284,"경기도":7285,"연금":7286,"##반기":7287,"불구":7288,"근데":7289,"스트":7290,"일으":7291,"수요":7292,"기반":7293,"노조":7294,"2016":7295,"우승":7296,"마찬":7297,"공원":7298,"파악":7299,"최소":7300,"마찬가지":7301,"세력":7302,"##우스":7303,"선물":7304,"듯이":7305,"구축":7306,"이상의":7307,"므로":7308,"엄청":7309,"대체":7310,"시의":7311,"시리":7312,"##므로":7313,"내놓":7314,"방침":7315,"작년":7316,"부르":7317,"무대":7318,"나타나":7319,"으면서":7320,"##et":7321,"독립":7322,"부정":7323,"받아들":7324,"축구":7325,"공정":7326,"보장":7327,"##운드":7328,"삼성전자":7329,"려면":7330,"잖아":7331,"영어":7332,"##자기":7333,"남북":7334,"개념":7335,"소설":7336,"발언":7337,"의회":7338,"지정":7339,"신경":7340,"여론":7341,"훨씬":7342,"올림픽":7343,"떠나":7344,"월드":7345,"보수":7346,"스포츠":7347,"예요":7348,"제조":7349,"특정":7350,"실패":7351,"가슴":7352,"근로":7353,"나온다":7354,"대변":7355,"시킨":7356,"캐릭":7357,"덧붙였":7358,"코스":7359,"중단":7360,"남편":7361,"주도":7362,"##페인":7363,"갈등":7364,"추천":7365,"원내":7366,"민족":7367,"성적":7368,"버스":7369,"활성":7370,"##러스":7371,"습니까":7372,"사태":7373,"일어나":7374,"당의":7375,"레이":7376,"전해":7377,"임금":7378,"부문":7379,"연구원":7380,"약속":7381,"시켰":7382,"구속":7383,"자본":7384,"조차":7385,"통과":7386,"고도":7387,"공항":7388,"캐릭터":7389,"체의":7390,"혹은":7391,"드라마":7392,"32":7393,"이게":7394,"하늘":7395,"호텔":7396,"인터뷰":7397,"절차":7398,"금지":7399,"고는":7400,"감정":7401,"소재":7402,"개의":7403,"의지":7404,"아프":7405,"아내":7406,"해석":7407,"오르":7408,"항상":7409,"다이":7410,"선언":7411,"심각":7412,"##ch":7413,"일자리":7414,"모양":7415,"경남":7416,"나의":7417,"인수":7418,"##프트":7419,"기초":7420,"편의":7421,"혼자":7422,"당연":7423,"사이트":7424,"형성":7425,"주제":7426,"통일":7427,"마리":7428,"시각":7429,"##드시":7430,"애플":7431,"화장":7432,"반드시":7433,"변경":7434,"196":7435,"정리":7436,"소식":7437,"세기":7438,"불안":7439,"광고":7440,"보통":7441,"변호사":7442,"주문":7443,"식품":7444,"분양":7445,"사항":7446,"학년":7447,"바다":7448,"촬영":7449,"인생":7450,"이끌":7451,"밝혀":7452,"제출":7453,"근무":7454,"특성":7455,"심의":7456,"했으나":7457,"그램":7458,"은데":7459,"만의":7460,"맛있":7461,"다며":7462,"회원":7463,"세월":7464,"매일":7465,"##nd":7466,"둘러":7467,"##ed":7468,"완전히":7469,"고등":7470,"유리":7471,"유통":7472,"45":7473,"계의":7474,"##as":7475,"원의":7476,"연속":7477,"이유로":7478,"거든요":7479,"노인":7480,"##어났":7481,"거쳐":7482,"##다가":7483,"통한":7484,"사전":7485,"국방":7486,"시리즈":7487,"더불":7488,"해요":7489,"도전":7490,"온라인":7491,"집단":7492,"접근":7493,"소송":7494,"불러":7495,"소유":7496,"원래":7497,"불리":7498,"진정":7499,"겨울":7500,"장면":7501,"장소":7502,"내리":7503,"재미":7504,"그래도":7505,"300":7506,"홍보":7507,"##리카":7508,"중인":7509,"권력":7510,"특징":7511,"죽음":7512,"수상":7513,"저녁":7514,"스러운":7515,"아의":7516,"협회":7517,"빠져":7518,"대중":7519,"도착":7520,"실적":7521,"살펴":7522,"심사":7523,"언어":7524,"브라":7525,"군의":7526,"하이":7527,"최초":7528,"심리":7529,"비중":7530,"확정":7531,"작용":7532,"으려":7533,"부부":7534,"김정":7535,"선발":7536,"대사":7537,"만족":7538,"는데요":7539,"36":7540,"차별":7541,"울산":7542,"선보":7543,"리의":7544,"만약":7545,"절대":7546,"열리":7547,"우주":7548,"갑자기":7549,"굉장":7550,"원칙":7551,"주가":7552,"##벤트":7553,"통화":7554,"##은행":7555,"가르":7556,"##BC":7557,"배치":7558,"빨리":7559,"영역":7560,"초등":7561,"총선":7562,"바뀌":7563,"판결":7564,"이벤트":7565,"중소기업":7566,"수술":7567,"신용":7568,"지배":7569,"데이터":7570,"졸업":7571,"2007":7572,"##스코":7573,"비행":7574,"라인":7575,"지키":7576,"등급":7577,"33":7578,"인근":7579,"고요":7580,"법인":7581,"신뢰":7582,"요소":7583,"성격":7584,"포기":7585,"그리스":7586,"유일":7587,"아름다":7588,"약간":7589,"모바":7590,"취업":7591,"청소년":7592,"##무리":7593,"측면":7594,"직장":7595,"쇼핑":7596,"본인":7597,"재산":7598,"##다면":7599,"께서":7600,"부상":7601,"의장":7602,"조합":7603,"된다는":7604,"향후":7605,"1000":7606,"##니아":7607,"건축":7608,"설정":7609,"우수":7610,"근거":7611,"스토":7612,"외부":7613,"스타일":7614,"##젝트":7615,"에요":7616,"모바일":7617,"교과":7618,"##대표":7619,"나머":7620,"시점":7621,"인력":7622,"떨어지":7623,"저희":7624,"위협":7625,"나머지":7626,"베이":7627,"법안":7628,"고통":7629,"##니스":7630,"본의":7631,"돌아가":7632,"교회":7633,"가량":7634,"대변인":7635,"강한":7636,"야당":7637,"종교":7638,"금액":7639,"특수":7640,"생기":7641,"학습":7642,"90":7643,"누가":7644,"계기":7645,"초기":7646,"태도":7647,"프로젝트":7648,"설계":7649,"상당히":7650,"2017":7651,"바꾸":7652,"휴대":7653,"의무":7654,"당선":7655,"드리":7656,"피해자":7657,"인권":7658,"굉장히":7659,"인제":7660,"임대":7661,"계열":7662,"물질":7663,"테러":7664,"기분":7665,"메시":7666,"법률":7667,"이론":7668,"마무리":7669,"위반":7670,"창조":7671,"사과":7672,"동일":7673,"일상":7674,"축제":7675,"구입":7676,"위의":7677,"알아":7678,"완성":7679,"주인공":7680,"무역":7681,"of":7682,"전력":7683,"컴퓨":7684,"경쟁력":7685,"중간":7686,"자녀":7687,"##학생":7688,"수업":7689,"올랐":7690,"강남":7691,"당하":7692,"나누":7693,"다리":7694,"빠르":7695,"바탕":7696,"앞두":7697,"마시":7698,"##ro":7699,"이하":7700,"미술":7701,"혜택":7702,"경북":7703,"지사":7704,"효율":7705,"폭력":7706,"원장":7707,"출발":7708,"충격":7709,"야구":7710,"나섰":7711,"거야":7712,"인한":7713,"서울시":7714,"##심히":7715,"문재":7716,"보상":7717,"추정":7718,"마이":7719,"달성":7720,"시킬":7721,"버렸":7722,"수용":7723,"예방":7724,"##ac":7725,"그게":7726,"운전":7727,"##아가":7728,"자치":7729,"수석":7730,"제일":7731,"과제":7732,"도와":7733,"바라보":7734,"명이":7735,"미치":7736,"34":7737,"뉴욕":7738,"한데":7739,"배경":7740,"강원":7741,"증거":7742,"##텐츠":7743,"문재인":7744,"원내대표":7745,"준다":7746,"요리":7747,"충분히":7748,"##의원":7749,"체육":7750,"지수":7751,"마케":7752,"장비":7753,"텔레":7754,"달려":7755,"커피":7756,"집행":7757,"컴퓨터":7758,"케이":7759,"자격":7760,"수원":7761,"문의":7762,"KT":7763,"창업":7764,"카메":7765,"비난":7766,"투입":7767,"작성":7768,"박사":7769,"보고서":7770,"측은":7771,"완전":7772,"the":7773,"대답":7774,"공천":7775,"가의":7776,"가득":7777,"대가":7778,"전용":7779,"요금":7780,"오랜":7781,"단의":7782,"부대":7783,"##20":7784,"38":7785,"이때":7786,"##준다":7787,"할인":7788,"아도":7789,"##ent":7790,"잠시":7791,"미사":7792,"##ri":7793,"##ad":7794,"봉사":7795,"##한다":7796,"보건":7797,"##스타":7798,"기다리":7799,"평소":7800,"매년":7801,"식사":7802,"겁니다":7803,"식의":7804,"연장":7805,"권리":7806,"이른":7807,"이거":7808,"확산":7809,"종의":7810,"마케팅":7811,"크리스":7812,"처벌":7813,"세금":7814,"크기":7815,"카페":7816,"의한":7817,"이의":7818,"이어지":7819,"신규":7820,"용의":7821,"5000":7822,"이탈":7823,"공유":7824,"표시":7825,"실험":7826,"##50":7827,"철학":7828,"해양":7829,"방어":7830,"느껴":7831,"시위":7832,"놀라":7833,"안타":7834,"대학교":7835,"분의":7836,"##거운":7837,"지시":7838,"열심히":7839,"오바":7840,"교체":7841,"부여":7842,"노동자":7843,"부장":7844,"헌법":7845,"지의":7846,"기구":7847,"의심":7848,"향해":7849,"채용":7850,"매장":7851,"미리":7852,"직업":7853,"기소":7854,"올려":7855,"주말":7856,"어려움":7857,"전반":7858,"을지":7859,"화학":7860,"수정":7861,"골프":7862,"업의":7863,"상담":7864,"줄이":7865,"메시지":7866,"나중":7867,"맞춰":7868,"물건":7869,"청구":7870,"재의":7871,"비밀":7872,"반복":7873,"##나무":7874,"범위":7875,"불편":7876,"요인":7877,"명령":7878,"국립":7879,"만한":7880,"37":7881,"2018":7882,"할지":7883,"된다고":7884,"고개":7885,"보조":7886,"알리":7887,"안보":7888,"##서관":7889,"종류":7890,"소통":7891,"전부":7892,"완화":7893,"네트":7894,"대기":7895,"보안":7896,"##고기":7897,"나선":7898,"긍정":7899,"2006":7900,"통제":7901,"허용":7902,"표정":7903,"인하":7904,"자랑":7905,"com":7906,"수수":7907,"눈물":7908,"리더":7909,"들여":7910,"강의":7911,"co":7912,"공화":7913,"불가":7914,"상징":7915,"번호":7916,"고속":7917,"길이":7918,"참고":7919,"혁명":7920,"ㅎㅎ":7921,"예비":7922,"세의":7923,"강제":7924,"가리":7925,"본다":7926,"마저":7927,"흔들":7928,"국토":7929,"194":7930,"의도":7931,"독자":7932,"##어요":7933,"in":7934,"순위":7935,"수단":7936,"방지":7937,"벌이":7938,"꾸준":7939,"##ot":7940,"장치":7941,"문서":7942,"전남":7943,"절반":7944,"진단":7945,"발사":7946,"##반도":7947,"살인":7948,"이라":7949,"국회의원":7950,"콘텐츠":7951,"kr":7952,"선고":7953,"폭발":7954,"자는":7955,"반발":7956,"블랙":7957,"출마":7958,"점점":7959,"가까운":7960,"창출":7961,"사정":7962,"48":7963,"연구소":7964,"파괴":7965,"연대":7966,"국무":7967,"전년":7968,"기계":7969,"슈퍼":7970,"로운":7971,"##us":7972,"회견":7973,"나서":7974,"걸쳐":7975,"무시":7976,"오바마":7977,"미디어":7978,"최저":7979,"철저":7980,"연출":7981,"와서":7982,"차단":7983,"한계":7984,"희생":7985,"소녀":7986,"적절":7987,"강하":7988,"제거":7989,"잖아요":7990,"기여":7991,"으니까":7992,"모른다":7993,"당장":7994,"체결":7995,"##화점":7996,"학부":7997,"파이":7998,"점검":7999,"늘어나":8000,"그러니까":8001,"아무리":8002,"이달":8003,"아빠":8004,"태양":8005,"카메라":8006,"똑같":8007,"선진":8008,"천만":8009,"펼쳐":8010,"동료":8011,"투자자":8012,"싸움":8013,"밝히":8014,"매력":8015,"대법":8016,"철도":8017,"연계":8018,"권의":8019,"응답":8020,"촉구":8021,"무료":8022,"##ul":8023,"만난":8024,"벗어나":8025,"는다는":8026,"클럽":8027,"대하":8028,"재단":8029,"일까":8030,"전형":8031,"##ig":8032,"지상":8033,"폐지":8034,"괜찮":8035,"선의":8036,"##ur":8037,"학원":8038,"모아":8039,"누군":8040,"물의":8041,"한반도":8042,"##워크":8043,"이명":8044,"아동":8045,"향상":8046,"비상":8047,"나갈":8048,"했었":8049,"##다보":8050,"사기":8051,"여러분":8052,"##리어":8053,"그린":8054,"위안":8055,"공단":8056,"무리":8057,"덕분":8058,"운용":8059,"상상":8060,"55":8061,"바닥":8062,"세트":8063,"실장":8064,"물리":8065,"기울":8066,"수많":8067,"채권":8068,"멤버":8069,"봐야":8070,"km":8071,"확장":8072,"##시스":8073,"나올":8074,"흐름":8075,"실천":8076,"스테":8077,"진다":8078,"39":8079,"아기":8080,"고양":8081,"IT":8082,"가까이":8083,"고급":8084,"다소":8085,"가로":8086,"##지어":8087,"전날":8088,"짜리":8089,"##ation":8090,"간단":8091,"패션":8092,"##od":8093,"##간다":8094,"##란드":8095,"게다가":8096,"고기":8097,"빠른":8098,"수학":8099,"월드컵":8100,"직후":8101,"분리":8102,"공기":8103,"할머니":8104,"뭔가":8105,"동기":8106,"페이스":8107,"어제":8108,"경고":8109,"42":8110,"2005":8111,"주기":8112,"수치":8113,"통해서":8114,"돌려":8115,"형식":8116,"주차":8117,"거대":8118,"가을":8119,"전의":8120,"##페이지":8121,"논리":8122,"아르":8123,"##id":8124,"실질":8125,"출판":8126,"유사":8127,"가수":8128,"진보":8129,"디지":8130,"홈페이지":8131,"소프트":8132,"##럼프":8133,"43":8134,"오픈":8135,"정체":8136,"미사일":8137,"왼쪽":8138,"메이":8139,"제재":8140,"성능":8141,"따로":8142,"상호":8143,"심지어":8144,"아닐":8145,"고서":8146,"결론":8147,"아예":8148,"움직임":8149,"식당":8150,"감안":8151,"진실":8152,"##ay":8153,"41":8154,"산의":8155,"당했":8156,"정비":8157,"균형":8158,"해소":8159,"아름다운":8160,"부탁":8161,"분류":8162,"두려":8163,"이용해":8164,"계산":8165,"연간":8166,"교육청":8167,"백화점":8168,"정규":8169,"##나라당":8170,"한나라당":8171,"구분":8172,"소장":8173,"공약":8174,"즐기":8175,"지점":8176,"초반":8177,"네트워크":8178,"구의":8179,"긴장":8180,"아닌가":8181,"고위":8182,"예측":8183,"결코":8184,"44":8185,"유가":8186,"관의":8187,"개입":8188,"생긴":8189,"든지":8190,"부지":8191,"정기":8192,"##ag":8193,"그럴":8194,"구역":8195,"실현":8196,"자율":8197,"구간":8198,"힘든":8199,"입주":8200,"##가락":8201,"##리트":8202,"체포":8203,"여당":8204,"움직이":8205,"기기":8206,"후반":8207,"실력":8208,"지도자":8209,"으므로":8210,"연주":8211,"가스":8212,"##시오":8213,"##구요":8214,"구글":8215,"##어날":8216,"트럼프":8217,"이기":8218,"육성":8219,"살펴보":8220,"보냈":8221,"타임":8222,"작전":8223,"연락":8224,"소년":8225,"그랬":8226,"위로":8227,"지휘":8228,"들어갔":8229,"편지":8230,"들어오":8231,"지분":8232,"건의":8233,"부채":8234,"##un":8235,"토지":8236,"국장":8237,"전면":8238,"김영":8239,"극복":8240,"단일":8241,"갖추":8242,"상처":8243,"뿌리":8244,"상관":8245,"인증":8246,"복합":8247,"모여":8248,"웃음":8249,"판사":8250,"##라스":8251,"모임":8252,"부처":8253,"##러운":8254,"원자":8255,"형사":8256,"노선":8257,"내일":8258,"의하":8259,"거주":8260,"46":8261,"누군가":8262,"디지털":8263,"이웃":8264,"점수":8265,"동생":8266,"기타":8267,"과장":8268,"이건":8269,"일의":8270,"모집":8271,"47":8272,"출전":8273,"별로":8274,"관광객":8275,"발행":8276,"종목":8277,"스토리":8278,"완벽":8279,"가게":8280,"고등학교":8281,"재료":8282,"대우":8283,"존의":8284,"떨어진":8285,"2004":8286,"이스":8287,"매각":8288,"생태":8289,"새벽":8290,"시선":8291,"경선":8292,"올라가":8293,"이래":8294,"유엔":8295,"##os":8296,"메뉴":8297,"추구":8298,"65":8299,"손해":8300,"불만":8301,"예전":8302,"##iv":8303,"끌어":8304,"승인":8305,"동원":8306,"총장":8307,"전개":8308,"과연":8309,"소방":8310,"장점":8311,"합리":8312,"중의":8313,"문자":8314,"따뜻":8315,"엄청난":8316,"52":8317,"##비아":8318,"임명":8319,"호주":8320,"그곳":8321,"베트":8322,"초의":8323,"진입":8324,"아이템":8325,"사업자":8326,"통계":8327,"단어":8328,"필수":8329,"195":8330,"임시":8331,"실수":8332,"런던":8333,"##TA":8334,"경향":8335,"해졌":8336,"##ow":8337,"PC":8338,"화면":8339,"부품":8340,"명예":8341,"구나":8342,"취소":8343,"악화":8344,"공감":8345,"49":8346,"개편":8347,"압박":8348,"채널":8349,"거짓":8350,"정해":8351,"어울":8352,"생존":8353,"거듭":8354,"검색":8355,"이명박":8356,"자전":8357,"400":8358,"떠올":8359,"지자":8360,"올렸":8361,"##em":8362,"연습":8363,"자극":8364,"내렸":8365,"놀이":8366,"흘러":8367,"돼야":8368,"현금":8369,"분명히":8370,"처분":8371,"궁금":8372,"시가":8373,"51":8374,"마침":8375,"충돌":8376,"활약":8377,"아닙":8378,"주년":8379,"시인":8380,"밝힌":8381,"대리":8382,"##ut":8383,"저축":8384,"경계":8385,"개국":8386,"아울":8387,"3000":8388,"질환":8389,"통상":8390,"듯한":8391,"군대":8392,"기부":8393,"오른쪽":8394,"분노":8395,"자식":8396,"##총리":8397,"##티브":8398,"테이":8399,"##란다":8400,"저지":8401,"근본":8402,"제목":8403,"성인":8404,"193":8405,"양의":8406,"##ec":8407,"담배":8408,"근로자":8409,"이탈리아":8410,"2002":8411,"스페인":8412,"날씨":8413,"새롭":8414,"트위":8415,"위하":8416,"75":8417,"에게서":8418,"권한":8419,"단독":8420,"에스":8421,"챔피":8422,"광역":8423,"꾸준히":8424,"프리미":8425,"인재":8426,"단위":8427,"CE":8428,"머물":8429,"대단":8430,"메르":8431,"코리아":8432,"세우":8433,"파트":8434,"관측":8435,"파리":8436,"네이":8437,"관객":8438,"면적":8439,"다루":8440,"교류":8441,"민주주의":8442,"당연히":8443,"보낸":8444,"자살":8445,"사무실":8446,"유도":8447,"취임":8448,"구요":8449,"바르":8450,"법정":8451,"복잡":8452,"##리오":8453,"##im":8454,"표준":8455,"마법":8456,"KBS":8457,"나타난":8458,"이슬":8459,"줄어들":8460,"##말로":8461,"알려진":8462,"##피스":8463,"보스":8464,"##아지":8465,"투명":8466,"다섯":8467,"맞추":8468,"자면":8469,"그걸":8470,"베트남":8471,"혼란":8472,"##로그":8473,"데뷔":8474,"의문":8475,"다운":8476,"품의":8477,"조작":8478,"##버스":8479,"농업":8480,"손실":8481,"취지":8482,"브리":8483,"수십":8484,"키우":8485,"마르":8486,"이른바":8487,"주지":8488,"53":8489,"어찌":8490,"노출":8491,"등과":8492,"유형":8493,"개성":8494,"시내":8495,"부드":8496,"이내":8497,"54":8498,"편집":8499,"허가":8500,"오리":8501,"##일보":8502,"주체":8503,"근처":8504,"석유":8505,"기독":8506,"후의":8507,"##회의":8508,"떨어져":8509,"나아가":8510,"옮겨":8511,"엔진":8512,"##ir":8513,"2003":8514,"조기":8515,"자전거":8516,"박물":8517,"##라도":8518,"배출":8519,"운행":8520,"물러":8521,"서민":8522,"감염":8523,"버린":8524,"감시":8525,"택시":8526,"트위터":8527,"어깨":8528,"성명":8529,"보증":8530,"아무런":8531,"##에도":8532,"유로":8533,"원전":8534,"서울대":8535,"나눠":8536,"화재":8537,"어떠":8538,"개정안":8539,"조용":8540,"##공사":8541,"결합":8542,"##환경":8543,"사법":8544,"충남":8545,"고정":8546,"동네":8547,"하의":8548,"검증":8549,"에이":8550,"나요":8551,"56":8552,"##세요":8553,"##터리":8554,"뛰어":8555,"고향":8556,"캠프":8557,"##사자":8558,"생겼":8559,"대안":8560,"평생":8561,"##산물":8562,"개방":8563,"피하":8564,"묘사":8565,"벌써":8566,"결제":8567,"유출":8568,"현대차":8569,"물가":8570,"##ers":8571,"진술":8572,"최대한":8573,"150":8574,"할까":8575,"다녀":8576,"그만큼":8577,"취하":8578,"연방":8579,"투쟁":8580,"교과서":8581,"갤럭":8582,"and":8583,"학과":8584,"선호":8585,"바꿔":8586,"애니":8587,"갤럭시":8588,"상장":8589,"당한":8590,"아이폰":8591,"어쩌":8592,"화려":8593,"이자":8594,"출범":8595,"는데도":8596,"구하":8597,"수비":8598,"부서":8599,"가졌":8600,"결의":8601,"접수":8602,"그려":8603,"##로스":8604,"##레이드":8605,"기도":8606,"추세":8607,"앨범":8608,"곳곳":8609,"답변":8610,"이뤄지":8611,"이재":8612,"맛집":8613,"모의":8614,"탄생":8615,"전세":8616,"ㅠㅠ":8617,"알려져":8618,"입학":8619,"건너":8620,"정원":8621,"축소":8622,"경력":8623,"설득":8624,"사퇴":8625,"훌륭":8626,"##마자":8627,"둘째":8628,"법의":8629,"주력":8630,"빠지":8631,"멀리":8632,"##뮤니":8633,"비리":8634,"관람":8635,"세워":8636,"완료":8637,"커뮤니":8638,"만났":8639,"증상":8640,"부회":8641,"동아":8642,"MBC":8643,"그거":8644,"역량":8645,"인공":8646,"걸리":8647,"통하":8648,"##플레이":8649,"국정원":8650,"클래":8651,"대북":8652,"시티":8653,"직전":8654,"상반기":8655,"방해":8656,"학자":8657,"종이":8658,"##바로":8659,"##철수":8660,"##오르":8661,"복귀":8662,"주위":8663,"경주":8664,"미군":8665,"그건":8666,"매체":8667,"항의":8668,"싸우":8669,"##ie":8670,"아울러":8671,"59":8672,"일제":8673,"스킬":8674,"공포":8675,"던지":8676,"##um":8677,"심장":8678,"집안":8679,"여유":8680,"홍콩":8681,"특허":8682,"관점":8683,"##NS":8684,"성분":8685,"호소":8686,"악의":8687,"주일":8688,"목숨":8689,"매수":8690,"너무나":8691,"스트레스":8692,"돌파":8693,"노트":8694,"하반기":8695,"역대":8696,"팀장":8697,"타격":8698,"집회":8699,"발휘":8700,"조절":8701,"당초":8702,"형제":8703,"편성":8704,"투어":8705,"The":8706,"치열":8707,"규칙":8708,"공산":8709,"물량":8710,"영양":8711,"자고":8712,"아쉬":8713,"프레":8714,"오늘날":8715,"로봇":8716,"승부":8717,"인류":8718,"##프라":8719,"57":8720,"부진":8721,"컬러":8722,"수립":8723,"재무":8724,"긴급":8725,"주거":8726,"언니":8727,"라서":8728,"조각":8729,"지내":8730,"개별":8731,"박물관":8732,"아프리카":8733,"##av":8734,"더라구요":8735,"신체":8736,"떨어졌":8737,"무장":8738,"경비":8739,"58":8740,"발굴":8741,"부과":8742,"64":8743,"인민":8744,"##어도":8745,"비즈":8746,"연말":8747,"죽이":8748,"##웨어":8749,"##어져":8750,"인원":8751,"공직":8752,"##마스":8753,"모자":8754,"자마자":8755,"채택":8756,"고소":8757,"파견":8758,"만화":8759,"아이디어":8760,"명확":8761,"##으니":8762,"극장":8763,"품질":8764,"생겨":8765,"##도로":8766,"이슈":8767,"창원":8768,"동반":8769,"단순히":8770,"그저":8771,"후원":8772,"정지":8773,"허리":8774,"점유":8775,"들려":8776,"의의":8777,"공모":8778,"지하철":8779,"냄새":8780,"측정":8781,"IS":8782,"비디오":8783,"저렴":8784,"이슬람":8785,"체력":8786,"여의":8787,"였으며":8788,"안철수":8789,"질의":8790,"늘리":8791,"도망":8792,"##and":8793,"지자체":8794,"협약":8795,"##어졌":8796,"초대":8797,"비록":8798,"매매":8799,"##ap":8800,"##드리":8801,"##op":8802,"상위":8803,"량의":8804,"접촉":8805,"취재":8806,"점차":8807,"사유":8808,"파일":8809,"##다니":8810,"는다고":8811,"수능":8812,"연설":8813,"학부모":8814,"뛰어난":8815,"갖춘":8816,"협정":8817,"부가":8818,"대법원":8819,"전해졌":8820,"디스":8821,"다행":8822,"보관":8823,"발달":8824,"소환":8825,"거론":8826,"광장":8827,"이랑":8828,"합병":8829,"한정":8830,"유기":8831,"미소":8832,"버전":8833,"임원":8834,"무려":8835,"사령":8836,"실행":8837,"예고":8838,"나쁜":8839,"왜냐":8840,"신설":8841,"환율":8842,"신호":8843,"단기":8844,"텐데":8845,"인용":8846,"##아버지":8847,"수수료":8848,"청문":8849,"답니다":8850,"뮤지":8851,"1990":8852,"99":8853,"##일리":8854,"돼지":8855,"줘야":8856,"조언":8857,"영웅":8858,"##워서":8859,"면은":8860,"증명":8861,"군인":8862,"혹시":8863,"자라":8864,"숫자":8865,"예약":8866,"기원":8867,"로서의":8868,"도서관":8869,"블루":8870,"드러났":8871,"양성":8872,"더라고":8873,"세종":8874,"고교":8875,"한국인":8876,"상임":8877,"부실":8878,"일찍":8879,"##르트":8880,"##케이션":8881,"깊이":8882,"도덕":8883,"라디오":8884,"기독교":8885,"내지":8886,"어른":8887,"안내":8888,"스위":8889,"나름":8890,"배제":8891,"##회사":8892,"서류":8893,"라운드":8894,"잇따":8895,"의존":8896,"눈길":8897,"한화":8898,"전공":8899,"호남":8900,"##영상":8901,"법무":8902,"부회장":8903,"이틀":8904,"지출":8905,"계층":8906,"##다른":8907,"내세":8908,"집계":8909,"잠재":8910,"조심":8911,"가계":8912,"노무":8913,"태의":8914,"##og":8915,"매달":8916,"##조건":8917,"수백":8918,"##나마":8919,"부자":8920,"오염":8921,"제정":8922,"언제나":8923,"걸어":8924,"깨끗":8925,"재미있":8926,"몰랐":8927,"휴가":8928,"중학교":8929,"흥미":8930,"가끔":8931,"2001":8932,"번의":8933,"연극":8934,"어의":8935,"교의":8936,"징역":8937,"비서":8938,"##담회":8939,"최선":8940,"##러리":8941,"정식":8942,"도쿄":8943,"변동":8944,"마의":8945,"성폭":8946,"미니":8947,"##카오":8948,"서명":8949,"표의":8950,"패배":8951,"느낄":8952,"친환경":8953,"이스라":8954,"시원":8955,"살리":8956,"늘어난":8957,"동부":8958,"무게":8959,"감각":8960,"그날":8961,"CEO":8962,"크림":8963,"실업":8964,"캠페인":8965,"받아들이":8966,"지닌":8967,"FTA":8968,"가동":8969,"대장":8970,"포장":8971,"수준의":8972,"단속":8973,"사라지":8974,"일대":8975,"기지":8976,"이스라엘":8977,"돌아오":8978,"문제점":8979,"교환":8980,"스피":8981,"St":8982,"적자":8983,"꺼내":8984,"취급":8985,"활발":8986,"63":8987,"호흡":8988,"획득":8989,"제국":8990,"님의":8991,"윤리":8992,"회계":8993,"드러나":8994,"총회":8995,"국방부":8996,"고발":8997,"나갔":8998,"원리":8999,"업종":9000,"85":9001,"동영상":9002,"질서":9003,"신세":9004,"풍부":9005,"조원":9006,"경찰서":9007,"해진":9008,"KB":9009,"66":9010,"마감":9011,"침해":9012,"##ce":9013,"항목":9014,"비즈니스":9015,"고문":9016,"질병":9017,"번역":9018,"즐길":9019,"##ab":9020,"대만":9021,"하나님":9022,"투수":9023,"진화":9024,"내의":9025,"근대":9026,"600":9027,"종료":9028,"전원":9029,"수집":9030,"트리":9031,"합격":9032,"대처":9033,"유니":9034,"쓰레":9035,"정치인":9036,"시사":9037,"간담회":9038,"대학생":9039,"이행":9040,"등도":9041,"신화":9042,"이외":9043,"무상":9044,"서구":9045,"협의회":9046,"선임":9047,"무조건":9048,"레벨":9049,"발매":9050,"대결":9051,"부당":9052,"홈런":9053,"##oc":9054,"공동체":9055,"##th":9056,"페이스북":9057,"거두":9058,"신분":9059,"##웨이":9060,"행의":9061,"비전":9062,"로마":9063,"심판":9064,"EU":9065,"입법":9066,"바란다":9067,"주소":9068,"매입":9069,"점심":9070,"파티":9071,"남부":9072,"찾아가":9073,"게시":9074,"득점":9075,"st":9076,"오랫":9077,"논문":9078,"장난":9079,"이승":9080,"191":9081,"SNS":9082,"오빠":9083,"##은이":9084,"양국":9085,"##센트":9086,"수영":9087,"드러내":9088,"##데이":9089,"데려":9090,"식물":9091,"사안":9092,"소화":9093,"##ess":9094,"느라":9095,"상업":9096,"전제":9097,"편안":9098,"##뜨리":9099,"브라질":9100,"아까":9101,"생물":9102,"기아":9103,"출입":9104,"옛날":9105,"치의":9106,"폐쇄":9107,"##ter":9108,"강원도":9109,"외환":9110,"챔피언":9111,"적합":9112,"나타내":9113,"며칠":9114,"순수":9115,"들어간":9116,"수리":9117,"몰려":9118,"##로운":9119,"키워":9120,"내내":9121,"비행기":9122,"플러스":9123,"가시":9124,"키로":9125,"지니":9126,"스카":9127,"##CT":9128,"내게":9129,"화제":9130,"용기":9131,"여건":9132,"소중":9133,"관찰":9134,"쓰레기":9135,"모으":9136,"미세":9137,"개막":9138,"##이너":9139,"된다면":9140,"61":9141,"대폭":9142,"일어난":9143,"지대":9144,"맥주":9145,"계열사":9146,"습관":9147,"인프라":9148,"##세대":9149,"폭행":9150,"화가":9151,"쓰러":9152,"끊임":9153,"과도":9154,"##립니다":9155,"저항":9156,"설비":9157,"포스코":9158,"임의":9159,"영향력":9160,"##ia":9161,"패턴":9162,"72":9163,"소의":9164,"선출":9165,"포항":9166,"본질":9167,"아우":9168,"견해":9169,"마트":9170,"전북":9171,"연령":9172,"뉴시스":9173,"화장품":9174,"남녀":9175,"이중":9176,"로써":9177,"김종":9178,"시리아":9179,"지불":9180,"토대":9181,"소문":9182,"플랫":9183,"결승":9184,"스파":9185,"감동":9186,"주관":9187,"성향":9188,"해군":9189,"천안":9190,"##메달":9191,"부사":9192,"지나치":9193,"62":9194,"보완":9195,"확률":9196,"##려서":9197,"파워":9198,"침체":9199,"마이크":9200,"즉시":9201,"오랫동안":9202,"다이어":9203,"반도":9204,"맞춤":9205,"일으키":9206,"연예":9207,"냐고":9208,"교육감":9209,"자꾸":9210,"마주":9211,"평등":9212,"초청":9213,"선박":9214,"살아가":9215,"보일":9216,"순환":9217,"이성":9218,"흔히":9219,"##교육":9220,"##우드":9221,"##마디":9222,"로스":9223,"스크":9224,"분쟁":9225,"강도":9226,"사내":9227,"흐르":9228,"##카드":9229,"##직원":9230,"초점":9231,"보급":9232,"합류":9233,"##으면":9234,"공통":9235,"간부":9236,"포스":9237,"그나마":9238,"김성":9239,"미친":9240,"지진":9241,"무릎":9242,"건립":9243,"열차":9244,"이민":9245,"실무":9246,"84":9247,"끼리":9248,"지위":9249,"엘리":9250,"현행":9251,"해운":9252,"##란히":9253,"별도":9254,"지도부":9255,"중대":9256,"줄어":9257,"해의":9258,"주자":9259,"상하":9260,"인정받":9261,"김정은":9262,"에어":9263,"취득":9264,"##나다":9265,"본사":9266,"야권":9267,"제주도":9268,"하우스":9269,"첫째":9270,"선배":9271,"돌리":9272,"해명":9273,"##연히":9274,"녹색":9275,"전이":9276,"솔직":9277,"무서":9278,"사원":9279,"걸음":9280,"텔레콤":9281,"적어도":9282,"지명":9283,"00":9284,"##ew":9285,"영원":9286,"구제":9287,"밴드":9288,"펼치":9289,"한지":9290,"추적":9291,"대립":9292,"종종":9293,"협조":9294,"##하면":9295,"이사장":9296,"취약":9297,"68":9298,"상인":9299,"예수":9300,"이루어지":9301,"현안":9302,"계좌":9303,"에다":9304,"폐기":9305,"증시":9306,"진료":9307,"독특":9308,"기름":9309,"##서트":9310,"풍경":9311,"아닙니다":9312,"주주":9313,"은퇴":9314,"##TE":9315,"찬성":9316,"속의":9317,"집권":9318,"소위":9319,"##다란":9320,"지표":9321,"800":9322,"급증":9323,"이용한":9324,"노사":9325,"이용자":9326,"무너":9327,"67":9328,"동맹":9329,"유권":9330,"무한":9331,"열정":9332,"1980":9333,"저장":9334,"담보":9335,"95":9336,"영장":9337,"네이버":9338,"##싱턴":9339,"테크":9340,"통보":9341,"불가피":9342,"아무것":9343,"느꼈":9344,"내린":9345,"남기":9346,"없애":9347,"살짝":9348,"확실히":9349,"프리미엄":9350,"정확히":9351,"기상":9352,"##니어":9353,"면접":9354,"노무현":9355,"모드":9356,"빼앗":9357,"전하":9358,"신라":9359,"세운":9360,"어쨌":9361,"제약":9362,"##공업":9363,"사로":9364,"정하":9365,"정착":9366,"오프":9367,"##학자":9368,"192":9369,"김치":9370,"눈치":9371,"차관":9372,"왜냐하면":9373,"창의":9374,"어려워":9375,"임무":9376,"음성":9377,"바이오":9378,"간다":9379,"테스트":9380,"여인":9381,"임기":9382,"퇴직":9383,"초과":9384,"겨우":9385,"도중":9386,"연관":9387,"카카오":9388,"여겨":9389,"확신":9390,"입지":9391,"폭탄":9392,"4000":9393,"벌어지":9394,"고대":9395,"01":9396,"파크":9397,"그러므로":9398,"청문회":9399,"녀석":9400,"##머리":9401,"다수":9402,"지주":9403,"용어":9404,"배상":9405,"반의":9406,"출산":9407,"유발":9408,"데리":9409,"해제":9410,"탈출":9411,"재건":9412,"해방":9413,"급여":9414,"##ak":9415,"조명":9416,"아베":9417,"신속":9418,"지향":9419,"가방":9420,"워싱턴":9421,"객의":9422,"황제":9423,"발의":9424,"아트":9425,"2019":9426,"##ov":9427,"박스":9428,"##려야":9429,"마크":9430,"가난":9431,"청장":9432,"유저":9433,"민원":9434,"운명":9435,"병사":9436,"페이":9437,"수시":9438,"주최":9439,"캐나다":9440,"##스티":9441,"뒤집":9442,"고령":9443,"77":9444,"흡수":9445,"피아":9446,"화의":9447,"##해서":9448,"최소한":9449,"잡지":9450,"부활":9451,"아라":9452,"지연":9453,"저자":9454,"축하":9455,"120":9456,"농민":9457,"콘서트":9458,"적당":9459,"몰아":9460,"어쩔":9461,"착용":9462,"대학원":9463,"시청자":9464,"건조":9465,"는다면":9466,"올린":9467,"이정":9468,"##ill":9469,"개봉":9470,"맞이":9471,"파업":9472,"클라":9473,"과목":9474,"고양이":9475,"유의":9476,"실내":9477,"스님":9478,"풀이":9479,"학기":9480,"도발":9481,"호의":9482,"테마":9483,"변하":9484,"쉬운":9485,"각의":9486,"당부":9487,"일시":9488,"포럼":9489,"정작":9490,"02":9491,"곧바로":9492,"1999":9493,"아웃":9494,"연수":9495,"굳이":9496,"세포":9497,"한마디":9498,"여지":9499,"서양":9500,"##ard":9501,"##메이션":9502,"장이":9503,"여서":9504,"휴대폰":9505,"주행":9506,"남의":9507,"가해":9508,"앵커":9509,"##리스트":9510,"공중":9511,"한때":9512,"##구나":9513,"워낙":9514,"만남":9515,"74":9516,"할아버지":9517,"재개":9518,"코드":9519,"보존":9520,"판정":9521,"쟁의":9522,"##스탄":9523,"일치":9524,"박정":9525,"장식":9526,"마라":9527,"##가스":9528,"탑재":9529,"첨단":9530,"그럼에도":9531,"##시코":9532,"실종":9533,"만날":9534,"손가락":9535,"71":9536,"공주":9537,"신한":9538,"훼손":9539,"극단":9540,"구단":9541,"일어났":9542,"성남":9543,"1998":9544,"73":9545,"한쪽":9546,"사단":9547,"역의":9548,"##총장":9549,"스탠":9550,"온도":9551,"방의":9552,"급격":9553,"살해":9554,"마침내":9555,"입찰":9556,"와인":9557,"##너스":9558,"잠깐":9559,"영입":9560,"파트너":9561,"이라크":9562,"뮤지컬":9563,"몇몇":9564,"서부":9565,"조지":9566,"불렀":9567,"도심":9568,"에겐":9569,"주간":9570,"삭제":9571,"##ell":9572,"190":9573,"붕괴":9574,"안팎":9575,"몰라":9576,"Ch":9577,"플레이어":9578,"1997":9579,"남겨":9580,"화장실":9581,"음료":9582,"모니":9583,"심하":9584,"미안":9585,"76":9586,"더라고요":9587,"에서부터":9588,"육아":9589,"필리":9590,"##베이":9591,"익숙":9592,"이혼":9593,"미만":9594,"목사":9595,"개설":9596,"일방":9597,"지켜보":9598,"##힌다":9599,"CJ":9600,"강사":9601,"손님":9602,"##나이":9603,"경기장":9604,"양식":9605,"도구":9606,"IP":9607,"빠진":9608,"아시":9609,"반도체":9610,"문장":9611,"cm":9612,"스티":9613,"일자":9614,"입증":9615,"압도":9616,"수록":9617,"구도":9618,"직무":9619,"학문":9620,"임신":9621,"일요일":9622,"추억":9623,"되돌":9624,"느낀":9625,"압력":9626,"연봉":9627,"##로드":9628,"공인":9629,"커다란":9630,"적발":9631,"붙잡":9632,"여수":9633,"고유":9634,"##항공":9635,"진영":9636,"명칭":9637,"용인":9638,"In":9639,"촉진":9640,"소스":9641,"700":9642,"경매":9643,"기금":9644,"사드":9645,"즐거":9646,"민의":9647,"변신":9648,"응원":9649,"유아":9650,"와이":9651,"장착":9652,"둘러싼":9653,"걸려":9654,"의학":9655,"터키":9656,"맞서":9657,"요원":9658,"승객":9659,"메르스":9660,"##미지":9661,"바람직":9662,"경찰청":9663,"타자":9664,"배당":9665,"클린":9666,"계급":9667,"면세":9668,"벤처":9669,"작동":9670,"유대":9671,"두산":9672,"경상":9673,"거치":9674,"##조합":9675,"고전":9676,"##IA":9677,"건데":9678,"해안":9679,"##ity":9680,"봐도":9681,"##스토":9682,"뜨거운":9683,"가입자":9684,"담긴":9685,"소형":9686,"소련":9687,"거짓말":9688,"수지":9689,"69":9690,"교육부":9691,"절감":9692,"신중":9693,"충전":9694,"십시오":9695,"88":9696,"중동":9697,"장사":9698,"바이러스":9699,"도달":9700,"방사":9701,"중반":9702,"젊은이":9703,"구상":9704,"사이버":9705,"지지율":9706,"무렵":9707,"다름":9708,"배려":9709,"비정":9710,"평범":9711,"품목":9712,"ww":9713,"문화재":9714,"아가":9715,"##ED":9716,"객관":9717,"이념":9718,"교실":9719,"농협":9720,"편하":9721,"위대":9722,"재생":9723,"레드":9724,"환영":9725,"공학":9726,"테이블":9727,"공의":9728,"아마도":9729,"근육":9730,"구현":9731,"for":9732,"유행":9733,"고구":9734,"밀려":9735,"스케":9736,"유치원":9737,"했어요":9738,"소수":9739,"댓글":9740,"더군":9741,"고생":9742,"동력":9743,"군요":9744,"가볍":9745,"전주":9746,"이걸":9747,"강요":9748,"격차":9749,"애니메이션":9750,"기한":9751,"비례":9752,"갈수록":9753,"편리":9754,"적의":9755,"단장":9756,"해상":9757,"통증":9758,"북부":9759,"AI":9760,"의뢰":9761,"봅니다":9762,"왕의":9763,"넘어가":9764,"신선":9765,"시계":9766,"재판부":9767,"그쳤":9768,"좌우":9769,"마당":9770,"원대":9771,"범행":9772,"추석":9773,"블로그":9774,"부딪":9775,"##ev":9776,"논쟁":9777,"남쪽":9778,"손상":9779,"조달":9780,"안심":9781,"거절":9782,"융합":9783,"소프트웨어":9784,"멕시코":9785,"변수":9786,"김대":9787,"거지":9788,"사냥":9789,"www":9790,"이어졌":9791,"한미":9792,"바른":9793,"정서":9794,"유력":9795,"복원":9796,"보조금":9797,"쓰이":9798,"스키":9799,"세부":9800,"78":9801,"6000":9802,"징계":9803,"##래도":9804,"##비전":9805,"존중":9806,"총괄":9807,"상실":9808,"##라고":9809,"디스플레이":9810,"##트리":9811,"아닐까":9812,"보여준다":9813,"선전":9814,"자문":9815,"과일":9816,"어울리":9817,"공제":9818,"멈추":9819,"허위":9820,"휴식":9821,"외의":9822,"적응":9823,"드라이":9824,"안드":9825,"토요일":9826,"##그룹":9827,"합동":9828,"만들어진":9829,"로드":9830,"##르크":9831,"였으나":9832,"어두":9833,"조화":9834,"듯하":9835,"기후":9836,"실망":9837,"03":9838,"다이어트":9839,"천연":9840,"##다리":9841,"비대":9842,"화성":9843,"퍼센트":9844,"들이":9845,"공략":9846,"플라":9847,"당사자":9848,"연료":9849,"만일":9850,"열렸":9851,"조항":9852,"2020":9853,"장군":9854,"부작":9855,"떠난":9856,"채무":9857,"조례":9858,"가상":9859,"침대":9860,"사우":9861,"충청":9862,"##ra":9863,"동양":9864,"마친":9865,"세웠":9866,"전당":9867,"믿음":9868,"메모":9869,"출근":9870,"붙여":9871,"내수":9872,"체크":9873,"##정부":9874,"운전자":9875,"백만":9876,"대강":9877,"황금":9878,"행보":9879,"상대방":9880,"벌였":9881,"구경":9882,"자네":9883,"국경":9884,"추락":9885,"오브":9886,"독서":9887,"시달":9888,"기온":9889,"바위":9890,"##바닥":9891,"지리":9892,"결심":9893,"케이블":9894,"형의":9895,"기재":9896,"계시":9897,"조종":9898,"우울":9899,"지인":9900,"스코":9901,"어쨌든":9902,"끊임없이":9903,"깜짝":9904,"베이징":9905,"올바":9906,"보육":9907,"98":9908,"가질":9909,"드릴":9910,"그치":9911,"아카":9912,"무사":9913,"널리":9914,"포르":9915,"창작":9916,"알아보":9917,"8000":9918,"##if":9919,"시범":9920,"애초":9921,"차기":9922,"청사":9923,"교황":9924,"라든":9925,"화이트":9926,"아무래도":9927,"셔서":9928,"연맹":9929,"재벌":9930,"섭취":9931,"해고":9932,"최우":9933,"수천":9934,"엄격":9935,"##ct":9936,"평창":9937,"참사":9938,"뚜렷":9939,"##ep":9940,"유권자":9941,"금의":9942,"돌아온":9943,"자아":9944,"김태":9945,"챙겨":9946,"심한":9947,"박지":9948,"상무":9949,"포스트":9950,"개통":9951,"나설":9952,"지나가":9953,"예금":9954,"깨달":9955,"여의도":9956,"사물":9957,"하여":9958,"호기":9959,"흔적":9960,"민감":9961,"든다":9962,"세이":9963,"수급":9964,"의자":9965,"##CD":9966,"##어버":9967,"모니터":9968,"골목":9969,"일각":9970,"##단지":9971,"요건":9972,"벌금":9973,"이젠":9974,"카운":9975,"장악":9976,"진지":9977,"아메":9978,"##다수":9979,"부위":9980,"유입":9981,"상환":9982,"설의":9983,"선보이":9984,"보험료":9985,"전후":9986,"코치":9987,"매니":9988,"블록":9989,"##수수":9990,"김현":9991,"##ine":9992,"난민":9993,"유동":9994,"한참":9995,"의결":9996,"시급":9997,"참조":9998,"생의":9999,"주석":10000,"하위":10001,"IM":10002,"당일":10003,"소지":10004,"상자":10005,"산업의":10006,"##레인":10007,"선진국":10008,"반박":10009,"간호":10010,"즉각":10011,"무력":10012,"가공":10013,"과세":10014,"마사":10015,"유학":10016,"##로이드":10017,"##art":10018,"관세":10019,"병력":10020,"컨설":10021,"농촌":10022,"명품":10023,"걸로":10024,"사가":10025,"국내외":10026,"트렌":10027,"진주":10028,"페이지":10029,"##무성":10030,"비정규":10031,"##덩이":10032,"넘겨":10033,"석의":10034,"충북":10035,"엑스":10036,"##타인":10037,"부총리":10038,"태어나":10039,"86":10040,"양상":10041,"동남":10042,"보편":10043,"평양":10044,"주차장":10045,"비정규직":10046,"모색":10047,"청원":10048,"##ob":10049,"대륙":10050,"동작":10051,"줄여":10052,"으려고":10053,"##시다":10054,"이어질":10055,"자국":10056,"열린다":10057,"81":10058,"위주":10059,"향하":10060,"##집트":10061,"작곡":10062,"부각":10063,"백성":10064,"배터리":10065,"식민":10066,"노후":10067,"중공업":10068,"이집트":10069,"##ood":10070,"빌려":10071,"장르":10072,"원이":10073,"화물":10074,"to":10075,"도대":10076,"피의":10077,"떠났":10078,"드래":10079,"경찰관":10080,"가벼":10081,"베스트":10082,"동해":10083,"변의":10084,"최신":10085,"랜드":10086,"통의":10087,"선두":10088,"분열":10089,"7000":10090,"##est":10091,"불교":10092,"날아":10093,"##라리":10094,"초래":10095,"용역":10096,"북쪽":10097,"##끄러":10098,"청약":10099,"마스터":10100,"##증권":10101,"금속":10102,"대거":10103,"비하":10104,"메인":10105,"가깝":10106,"타이틀":10107,"진흥":10108,"시킨다":10109,"공시":10110,"연의":10111,"GS":10112,"중도":10113,"상가":10114,"소요":10115,"우유":10116,"##이도":10117,"노리":10118,"도대체":10119,"이리":10120,"1995":10121,"저런":10122,"주한":10123,"그니까":10124,"82":10125,"부적":10126,"##ip":10127,"당내":10128,"간접":10129,"강연":10130,"지침":10131,"중독":10132,"충족":10133,"회수":10134,"79":10135,"비타":10136,"시나":10137,"권위":10138,"특유":10139,"선사":10140,"본래":10141,"스튜":10142,"고리":10143,"규명":10144,"어려울":10145,"##거래":10146,"오해":10147,"오토":10148,"구청":10149,"마약":10150,"원유":10151,"머니":10152,"진상":10153,"설문":10154,"받아들여":10155,"텔레비전":10156,"오가":10157,"가요":10158,"천억":10159,"왜곡":10160,"입시":10161,"자가":10162,"##30":10163,"될지":10164,"##nn":10165,"을까요":10166,"AP":10167,"##덜란드":10168,"칭찬":10169,"들어와":10170,"막대":10171,"깔끔":10172,"쏟아":10173,"가사":10174,"멋진":10175,"장학":10176,"총재":10177,"네덜란드":10178,"일관":10179,"신기":10180,"산하":10181,"비로":10182,"임직원":10183,"##바이":10184,"해체":10185,"참가자":10186,"##크스":10187,"영혼":10188,"들어온":10189,"개헌":10190,"91":10191,"강점":10192,"출석":10193,"대원":10194,"현황":10195,"방위":10196,"1970":10197,"리더십":10198,"들어왔":10199,"명단":10200,"##all":10201,"복수":10202,"대다수":10203,"유산":10204,"##ub":10205,"높여":10206,"해져":10207,"계단":10208,"공작":10209,"태어난":10210,"구멍":10211,"##브리":10212,"원정":10213,"떠오르":10214,"데일리":10215,"실정":10216,"여권":10217,"오직":10218,"제자":10219,"##ist":10220,"치즈":10221,"배달":10222,"기쁨":10223,"위안부":10224,"순서":10225,"선거구":10226,"당황":10227,"농가":10228,"얼음":10229,"우의":10230,"한가":10231,"분이":10232,"일행":10233,"증언":10234,"걸렸":10235,"구성원":10236,"##트로":10237,"비싼":10238,"대행":10239,"어둠":10240,"착수":10241,"MS":10242,"승진":10243,"들어서":10244,"양산":10245,"선도":10246,"수주":10247,"치르":10248,"신부":10249,"섬유":10250,"##tt":10251,"줍니다":10252,"인과":10253,"철저히":10254,"정성":10255,"항공기":10256,"##건설":10257,"87":10258,"살아남":10259,"부사장":10260,"96":10261,"향한":10262,"##IS":10263,"대대":10264,"온갖":10265,"권고":10266,"소셜":10267,"이상한":10268,"치러":10269,"통치":10270,"중구":10271,"매출액":10272,"##ht":10273,"대목":10274,"태평":10275,"전한":10276,"담겨":10277,"경영자":10278,"싱글":10279,"가만":10280,"신발":10281,"가속":10282,"아저":10283,"05":10284,"입원":10285,"금요일":10286,"빠졌":10287,"환상":10288,"면세점":10289,"육군":10290,"##디션":10291,"돌아왔":10292,"표명":10293,"감옥":10294,"SBS":10295,"크리스마스":10296,"어린이집":10297,"부패":10298,"직장인":10299,"전사":10300,"미터":10301,"가이드":10302,"핸드":10303,"진심":10304,"색깔":10305,"발전소":10306,"인문":10307,"일원":10308,"나눔":10309,"표기":10310,"내려가":10311,"감성":10312,"재난":10313,"필리핀":10314,"유닛":10315,"건지":10316,"97":10317,"아저씨":10318,"인치":10319,"특이":10320,"새끼":10321,"먹이":10322,"빨간":10323,"앞둔":10324,"##랍니다":10325,"시중":10326,"##비드":10327,"이종":10328,"심화":10329,"해진다":10330,"미칠":10331,"천천":10332,"##생활":10333,"##퍼스":10334,"마땅":10335,"때로":10336,"워크":10337,"체육관":10338,"유용":10339,"격의":10340,"김해":10341,"천천히":10342,"그릇":10343,"직면":10344,"회전":10345,"플래":10346,"스위스":10347,"##디아":10348,"mm":10349,"원주":10350,"한글":10351,"위성":10352,"밀어":10353,"1996":10354,"250":10355,"목격":10356,"홀로":10357,"출장":10358,"타워":10359,"대량":10360,"탈락":10361,"해질":10362,"프라이":10363,"물류":10364,"되게":10365,"전설":10366,"생일":10367,"부작용":10368,"푸른":10369,"군수":10370,"억제":10371,"조의":10372,"골드":10373,"##ang":10374,"난다":10375,"연휴":10376,"원자력":10377,"무언":10378,"후기":10379,"##리포":10380,"반성":10381,"책임자":10382,"타당":10383,"들어갈":10384,"인당":10385,"인연":10386,"상당수":10387,"수면":10388,"오피스":10389,"신입":10390,"모았":10391,"무관":10392,"대상자":10393,"크루":10394,"오로":10395,"##문화":10396,"##까요":10397,"타입":10398,"대체로":10399,"가르치":10400,"ch":10401,"박람":10402,"기조":10403,"엔터":10404,"해준다":10405,"사인":10406,"시트":10407,"치명":10408,"행진":10409,"대외":10410,"##사고":10411,"점령":10412,"모래":10413,"농구":10414,"사로잡":10415,"옮기":10416,"줄어든":10417,"전파":10418,"브리핑":10419,"무척":10420,"말라":10421,"비타민":10422,"끝내":10423,"소음":10424,"##관리":10425,"명백":10426,"으시":10427,"월요일":10428,"시신":10429,"사격":10430,"자본주의":10431,"고속도로":10432,"고수":10433,"토론회":10434,"kst":10435,"사무총장":10436,"##CC":10437,"의해서":10438,"계절":10439,"피로":10440,"유죄":10441,"충실":10442,"전선":10443,"비의":10444,"플로":10445,"94":10446,"후속":10447,"현역":10448,"89":10449,"180":10450,"학대":10451,"판매량":10452,"유해":10453,"구미":10454,"경로":10455,"83":10456,"드디어":10457,"하드":10458,"시정":10459,"실시간":10460,"확충":10461,"바랍니다":10462,"재능":10463,"너희":10464,"조합원":10465,"건전":10466,"낸다":10467,"교장":10468,"스페":10469,"장수":10470,"##먼지":10471,"주류":10472,"청주":10473,"미술관":10474,"주재":10475,"호수":10476,"예외":10477,"철회":10478,"##포르":10479,"자세히":10480,"신임":10481,"국세":10482,"깨닫":10483,"##our":10484,"아일":10485,"웨이":10486,"92":10487,"고르":10488,"이른다":10489,"스웨":10490,"겨냥":10491,"이주":10492,"1994":10493,"넘치":10494,"금메달":10495,"당원":10496,"신학":10497,"후보자":10498,"전시회":10499,"제조업":10500,"학회":10501,"역전":10502,"동북":10503,"알렉":10504,"실태":10505,"그야":10506,"진의":10507,"지혜":10508,"상사":10509,"쟁점":10510,"낮추":10511,"무선":10512,"##ok":10513,"채워":10514,"정면":10515,"그야말로":10516,"##DP":10517,"프라":10518,"유전자":10519,"본회의":10520,"청의":10521,"메이저":10522,"나쁘":10523,"클래식":10524,"기운":10525,"살려":10526,"어리":10527,"어쩌면":10528,"태국":10529,"여섯":10530,"##피아":10531,"용품":10532,"포트":10533,"아스":10534,"북미":10535,"월급":10536,"여객":10537,"대구시":10538,"빌딩":10539,"##랑이":10540,"푸드":10541,"인형":10542,"단점":10543,"나간":10544,"후배":10545,"고시":10546,"진학":10547,"비서관":10548,"이닝":10549,"귀국":10550,"입구":10551,"게이":10552,"가려":10553,"프린":10554,"측근":10555,"##리즘":10556,"두려움":10557,"왕자":10558,"놀라운":10559,"명성":10560,"##입니다":10561,"무용":10562,"공헌":10563,"MB":10564,"##리티":10565,"사라졌":10566,"신앙":10567,"터미":10568,"치킨":10569,"헤어":10570,"##eg":10571,"재배":10572,"전직":10573,"코너":10574,"강경":10575,"방영":10576,"##ey":10577,"들리":10578,"th":10579,"구원":10580,"관료":10581,"누적":10582,"재정부":10583,"저작":10584,"사이즈":10585,"동화":10586,"인데요":10587,"넘기":10588,"##번에":10589,"열기":10590,"두드":10591,"계정":10592,"김동":10593,"한층":10594,"중점":10595,"누르":10596,"마켓":10597,"속성":10598,"소금":10599,"발급":10600,"성폭행":10601,"리스트":10602,"농장":10603,"베르":10604,"사무소":10605,"버린다":10606,"앞장":10607,"영토":10608,"처지":10609,"##피소":10610,"잇따라":10611,"접속":10612,"매도":10613,"대해선":10614,"클린턴":10615,"단말":10616,"흘리":10617,"고백":10618,"수분":10619,"kg":10620,"바깥":10621,"소외":10622,"케어":10623,"두려워":10624,"고마":10625,"##친다":10626,"늘어났":10627,"욕구":10628,"교도":10629,"오일":10630,"내면":10631,"신세계":10632,"독도":10633,"상원":10634,"자신감":10635,"공세":10636,"##ea":10637,"공군":10638,"##단체":10639,"기대감":10640,"정수":10641,"면의":10642,"재건축":10643,"##ath":10644,"외면":10645,"위상":10646,"서해":10647,"##용차":10648,"기적":10649,"박수":10650,"감상":10651,"비싸":10652,"관여":10653,"동참":10654,"증인":10655,"##PG":10656,"혈액":10657,"운송":10658,"거래소":10659,"방치":10660,"만든다":10661,"중계":10662,"버려":10663,"다를":10664,"용산":10665,"202":10666,"언젠":10667,"연상":10668,"##버트":10669,"스런":10670,"신인":10671,"구름":10672,"불행":10673,"측이":10674,"어질":10675,"미세먼지":10676,"수당":10677,"##저히":10678,"명시":10679,"##런스":10680,"서술":10681,"됐으며":10682,"원작":10683,"드러난":10684,"과학자":10685,"추측":10686,"표면":10687,"미국인":10688,"특검":10689,"협박":10690,"일반인":10691,"연평":10692,"##아내":10693,"al":10694,"견제":10695,"리조":10696,"LTE":10697,"책의":10698,"몬스터":10699,"수색":10700,"괴롭":10701,"##가포르":10702,"당분":10703,"따지":10704,"민생":10705,"법무부":10706,"관행":10707,"저의":10708,"예쁘":10709,"패러":10710,"##ue":10711,"주부":10712,"싱가포르":10713,"국어":10714,"현의":10715,"철수":10716,"둘러싸":10717,"올바른":10718,"철거":10719,"귀여":10720,"가짜":10721,"납부":10722,"인종":10723,"되찾":10724,"리얼":10725,"상식":10726,"윌리":10727,"##들이":10728,"무언가":10729,"대금":10730,"응급":10731,"93":10732,"독점":10733,"189":10734,"붙이":10735,"##받침":10736,"탄력":10737,"김재":10738,"이끄":10739,"##시마":10740,"상공":10741,"독재":10742,"디자이너":10743,"영남":10744,"육체":10745,"##아리":10746,"지낸":10747,"동성":10748,"##으로":10749,"중고":10750,"걸린":10751,"밝혀졌":10752,"##크라":10753,"기아차":10754,"탄핵":10755,"드립니다":10756,"시골":10757,"전적":10758,"위축":10759,"문명":10760,"셋째":10761,"소모":10762,"감자":10763,"돼서":10764,"밀리":10765,"예의":10766,"사회주의":10767,"옵션":10768,"예쁜":10769,"구별":10770,"전역":10771,"보좌":10772,"06":10773,"##소득":10774,"정적":10775,"선보였":10776,"유연":10777,"방학":10778,"트럭":10779,"김무성":10780,"##포트":10781,"욕망":10782,"부하":10783,"간주":10784,"부리":10785,"과감":10786,"종로":10787,"진리":10788,"내다":10789,"커뮤니케이션":10790,"강세":10791,"한도":10792,"아일랜드":10793,"##바지":10794,"연인":10795,"기업인":10796,"답답":10797,"기어":10798,"##네시아":10799,"특위":10800,"도내":10801,"##임스":10802,"외모":10803,"조만":10804,"##대문":10805,"서쪽":10806,"돌입":10807,"케이스":10808,"정밀":10809,"탑승":10810,"서버":10811,"터미널":10812,"매주":10813,"체인":10814,"보인":10815,"##스키":10816,"커플":10817,"공화국":10818,"대주":10819,"오류":10820,"학술":10821,"중개":10822,"장례":10823,"스프":10824,"##어리":10825,"##ik":10826,"내기":10827,"아이돌":10828,"멀티":10829,"지난주":10830,"건수":10831,"용도":10832,"쇼핑몰":10833,"900":10834,"무산":10835,"헤드":10836,"조리":10837,"##산업":10838,"FC":10839,"##리포니아":10840,"산책":10841,"철강":10842,"법칙":10843,"마이클":10844,"##버그":10845,"심해":10846,"캘리포니아":10847,"포착":10848,"상승세":10849,"하얀":10850,"해수":10851,"음주":10852,"챙기":10853,"꼼꼼":10854,"갖춰":10855,"모를":10856,"거친":10857,"납치":10858,"##잡이":10859,"쳐다보":10860,"모터":10861,"연애":10862,"달아":10863,"금방":10864,"국적":10865,"다스":10866,"추모":10867,"커뮤니티":10868,"캠퍼스":10869,"라이프":10870,"##거렸":10871,"던져":10872,"마쳤":10873,"당당":10874,"회동":10875,"끔찍":10876,"납품":10877,"냉장":10878,"히트":10879,"높였":10880,"춘천":10881,"탄소":10882,"매치":10883,"희생자":10884,"박람회":10885,"컨설팅":10886,"페르":10887,"다가오":10888,"ㅎㅎㅎ":10889,"구호":10890,"이지":10891,"고지":10892,"저기":10893,"당해":10894,"이뤄졌":10895,"목록":10896,"##성장":10897,"포털":10898,"각자":10899,"날개":10900,"9000":10901,"08":10902,"주먹":10903,"채우":10904,"09":10905,"보전":10906,"코트":10907,"##워드":10908,"부시":10909,"버튼":10910,"##그레이드":10911,"대개":10912,"업그레이드":10913,"인테":10914,"제임스":10915,"노예":10916,"용서":10917,"격려":10918,"련의":10919,"이모":10920,"가전":10921,"가맹":10922,"언젠가":10923,"금감":10924,"김기":10925,"시공":10926,"금강":10927,"비극":10928,"연예인":10929,"서초":10930,"뮤직":10931,"바뀐":10932,"신장":10933,"라이브":10934,"사립":10935,"사찰":10936,"발효":10937,"안타까":10938,"합쳐":10939,"꼬리":10940,"불거":10941,"리라":10942,"건가":10943,"성실":10944,"뒷받침":10945,"뇌물":10946,"끌어올":10947,"분당":10948,"##어놓":10949,"##둥이":10950,"트렌드":10951,"비트":10952,"오랜만":10953,"숨겨":10954,"원고":10955,"공고":10956,"지냈":10957,"##루션":10958,"한강":10959,"약물":10960,"존경":10961,"특별히":10962,"침묵":10963,"개척":10964,"04":10965,"입술":10966,"백악":10967,"문구":10968,"아쉽":10969,"리조트":10970,"특화":10971,"자제":10972,"국면":10973,"행정부":10974,"국무총리":10975,"재밌":10976,"먼지":10977,"성립":10978,"전담":10979,"별다른":10980,"##운동":10981,"회관":10982,"감축":10983,"##키지":10984,"편의점":10985,"PD":10986,"인도네시아":10987,"남겼":10988,"자발":10989,"생성":10990,"즐겁":10991,"가문":10992,"면역":10993,"소매":10994,"오스트":10995,"형편":10996,"일기":10997,"##임금":10998,"데이비드":10999,"증세":11000,"돌아와":11001,"##둘러":11002,"고사":11003,"##데이트":11004,"사후":11005,"##톨릭":11006,"패널":11007,"##ff":11008,"교섭":11009,"카이":11010,"까닭":11011,"내정":11012,"회피":11013,"업데이트":11014,"고조":11015,"눈앞":11016,"##피소드":11017,"에피소드":11018,"항소":11019,"패키지":11020,"억울":11021,"주사":11022,"1992":11023,"글자":11024,"놓여":11025,"트레이":11026,"조만간":11027,"강릉":11028,"친절":11029,"보입니다":11030,"시체":11031,"술의":11032,"당분간":11033,"아름답":11034,"일지":11035,"##지사":11036,"흑인":11037,"일어":11038,"진로":11039,"공방":11040,"리스크":11041,"물품":11042,"##어진다":11043,"도서":11044,"음반":11045,"급식":11046,"촛불":11047,"아픈":11048,"아랍":11049,"##러지":11050,"코스피":11051,"##스턴":11052,"관념":11053,"##긴다":11054,"만기":11055,"극대":11056,"입니까":11057,"아끼":11058,"티켓":11059,"미스":11060,"줄기":11061,"앞세":11062,"예선":11063,"그간":11064,"세탁":11065,"영광":11066,"빠져나":11067,"해킹":11068,"기법":11069,"구석":11070,"정말로":11071,"여사":11072,"이메":11073,"시나리오":11074,"명절":11075,"지법":11076,"김대중":11077,"지부":11078,"단원":11079,"발목":11080,"욕심":11081,"갈라":11082,"원가":11083,"1993":11084,"청산":11085,"##가루":11086,"갤러리":11087,"##ong":11088,"입력":11089,"사용자":11090,"실리":11091,"생길":11092,"부도":11093,"적정":11094,"증권사":11095,"1960":11096,"뛰어나":11097,"##ack":11098,"평택":11099,"미스터":11100,"##ame":11101,"김진":11102,"허락":11103,"점포":11104,"불어":11105,"##파이":11106,"다행히":11107,"새해":11108,"채소":11109,"김용":11110,"그라":11111,"차라리":11112,"저널":11113,"당과":11114,"궁극":11115,"07":11116,"명분":11117,"의외":11118,"##티나":11119,"태풍":11120,"메일":11121,"안드로이드":11122,"슬로":11123,"양자":11124,"학위":11125,"기울이":11126,"무의":11127,"관절":11128,"조세":11129,"##컨대":11130,"로켓":11131,"동쪽":11132,"하여금":11133,"액션":11134,"벌어졌":11135,"한겨":11136,"##스티벌":11137,"로비":11138,"그대":11139,"상생":11140,"페스티벌":11141,"무죄":11142,"윈도":11143,"등산":11144,"적도":11145,"만만":11146,"안의":11147,"유전":11148,"파의":11149,"뒤늦":11150,"##직자":11151,"타운":11152,"타이어":11153,"##ud":11154,"농사":11155,"레인":11156,"크로":11157,"금호":11158,"부드럽":11159,"중시":11160,"터지":11161,"중순":11162,"사형":11163,"동구":11164,"한겨레":11165,"기가":11166,"라이트":11167,"완공":11168,"관리자":11169,"바닷":11170,"순천":11171,"이메일":11172,"##ant":11173,"드림":11174,"GM":11175,"분산":11176,"인테리어":11177,"족의":11178,"단말기":11179,"뱅크":11180,"제어":11181,"감지":11182,"돼요":11183,"##들의":11184,"노동당":11185,"한동안":11186,"신동":11187,"차장":11188,"조약":11189,"금감원":11190,"스웨덴":11191,"유승":11192,"기차":11193,"분할":11194,"김상":11195,"수렴":11196,"담당자":11197,"의상":11198,"고추":11199,"모은":11200,"이마트":11201,"악마":11202,"부양":11203,"내다봤":11204,"자칫":11205,"위장":11206,"틀림":11207,"지목":11208,"급속":11209,"귀족":11210,"식량":11211,"스크린":11212,"곤란":11213,"잠수":11214,"통장":11215,"외치":11216,"전술":11217,"녹음":11218,"민중":11219,"야간":11220,"강행":11221,"주유":11222,"도박":11223,"어릴":11224,"일주":11225,"우위":11226,"무인":11227,"달한다":11228,"한국어":11229,"증대":11230,"자존":11231,"오페":11232,"화폐":11233,"외교부":11234,"영의":11235,"전무":11236,"입사":11237,"or":11238,"대지":11239,"몰래":11240,"창문":11241,"시상":11242,"br":11243,"지역구":11244,"즐겨":11245,"서기":11246,"애정":11247,"인디":11248,"현직":11249,"종시":11250,"마디":11251,"일환":11252,"거울":11253,"##FA":11254,"##풀이":11255,"드러냈":11256,"##블릿":11257,"필드":11258,"양쪽":11259,"남아":11260,"영화제":11261,"사자":11262,"비로소":11263,"도약":11264,"신사":11265,"늘어날":11266,"색상":11267,"배송":11268,"슬픔":11269,"뷰티":11270,"원천":11271,"노하":11272,"태평양":11273,"정황":11274,"##──":11275,"김경":11276,"결혼식":11277,"골라":11278,"단축":11279,"짐작":11280,"일으킨":11281,"cnn":11282,"최저임금":11283,"대항":11284,"양념":11285,"데미지":11286,"경찰의":11287,"무덤":11288,"잘라":11289,"바보":11290,"던가":11291,"라면서":11292,"히로":11293,"다면서":11294,"경위":11295,"130":11296,"형상":11297,"누나":11298,"놓치":11299,"포도":11300,"러시":11301,"편입":11302,"면허":11303,"거점":11304,"윌리엄":11305,"신비":11306,"##아이":11307,"흔들리":11308,"바퀴":11309,"유족":11310,"숙박":11311,"##ort":11312,"##ich":11313,"단단":11314,"이겨":11315,"몰리":11316,"가들의":11317,"##처럼":11318,"으리":11319,"이럴":11320,"그림자":11321,"산업단지":11322,"한두":11323,"콜라":11324,"민심":11325,"##이즈":11326,"New":11327,"의류":11328,"승용차":11329,"고구려":11330,"중재":11331,"범인":11332,"벌어진":11333,"일으켰":11334,"낭비":11335,"면제":11336,"박정희":11337,"##키스탄":11338,"##NA":11339,"##man":11340,"처의":11341,"후회":11342,"준공":11343,"메이크":11344,"개시":11345,"투데이":11346,"학교의":11347,"##동생":11348,"관할":11349,"순이":11350,"영감":11351,"미의":11352,"비평":11353,"흥행":11354,"위탁":11355,"무지":11356,"즐거운":11357,"패스":11358,"##ert":11359,"배정":11360,"국산":11361,"한숨":11362,"##트라":11363,"IMF":11364,"동향":11365,"오스":11366,"플랜":11367,"시에":11368,"예능":11369,"월세":11370,"부천":11371,"노총":11372,"##iz":11373,"세일":11374,"재고":11375,"복무":11376,"심정":11377,"실용":11378,"##ate":11379,"저소득":11380,"스타트":11381,"나타난다":11382,"가만히":11383,"##ive":11384,"차질":11385,"bl":11386,"정무":11387,"출간":11388,"나와서":11389,"생계":11390,"함유":11391,"##러드":11392,"더블":11393,"피트":11394,"실체":11395,"조용히":11396,"##가운":11397,"세제":11398,"백악관":11399,"수위":11400,"더구나":11401,"더군요":11402,"나아":11403,"타임스":11404,"세미":11405,"태블릿":11406,"##리에":11407,"즐거움":11408,"리버":11409,"똑같이":11410,"고스":11411,"고장":11412,"재원":11413,"유혹":11414,"OS":11415,"##ry":11416,"남한":11417,"고맙":11418,"등등":11419,"사연":11420,"한창":11421,"예산안":11422,"솔직히":11423,"링크":11424,"발라":11425,"발동":11426,"돋보":11427,"공익":11428,"오페라":11429,"스러워":11430,"야외":11431,"당선인":11432,"꼽힌다":11433,"피고":11434,"##마크":11435,"맥락":11436,"가톨릭":11437,"보여준":11438,"일어날":11439,"가족의":11440,"와중":11441,"약한":11442,"창고":11443,"##미터":11444,"마비":11445,"소원":11446,"정통":11447,"으러":11448,"##튜브":11449,"대국":11450,"아나":11451,"어차":11452,"어우":11453,"부른다":11454,"공업":11455,"나란히":11456,"상한":11457,"##oh":11458,"1991":11459,"영구":11460,"원활":11461,"##테크":11462,"사령관":11463,"대박":11464,"위키":11465,"버릴":11466,"출자":11467,"유튜브":11468,"찾아보":11469,"연합회":11470,"퇴근":11471,"피자":11472,"향의":11473,"통신사":11474,"어차피":11475,"엄청나":11476,"어르":11477,"사면":11478,"탈당":11479,"감추":11480,"바지":11481,"전인":11482,"선교":11483,"가르쳐":11484,"드레스":11485,"차세대":11486,"수년":11487,"서서":11488,"따져":11489,"화력":11490,"수습":11491,"버티":11492,"NH":11493,"KIA":11494,"한의":11495,"식민지":11496,"원에":11497,"의약":11498,"##꺼번에":11499,"한꺼번에":11500,"가벼운":11501,"체중":11502,"부드러운":11503,"다룬":11504,"제이":11505,"##구리":11506,"지능":11507,"드래곤":11508,"이뤄진":11509,"중국인":11510,"그리스도":11511,"이수":11512,"주방":11513,"미드":11514,"치유":11515,"김포":11516,"##러진":11517,"꿈꾸":11518,"##실험":11519,"고집":11520,"##핵화":11521,"공정위":11522,"데이트":11523,"병행":11524,"남긴":11525,"종일":11526,"빛나":11527,"비핵화":11528,"행태":11529,"스튜디오":11530,"매니저":11531,"늘려":11532,"미션":11533,"색의":11534,"책상":11535,"안경":11536,"니다":11537,"est":11538,"각국":11539,"대한항공":11540,"증진":11541,"특별법":11542,"가라":11543,"수다":11544,"사업비":11545,"라니":11546,"투기":11547,"절의":11548,"경의":11549,"참으로":11550,"절실":11551,"포드":11552,"복구":11553,"개그":11554,"##OS":11555,"가하":11556,"날짜":11557,"유적":11558,"터치":11559,"##하나":11560,"여신":11561,"내각":11562,"취향":11563,"생생":11564,"불량":11565,"아리":11566,"1988":11567,"동서":11568,"##ge":11569,"더러":11570,"솔로":11571,"리스":11572,"던데":11573,"중부":11574,"드렸":11575,"시세":11576,"마스크":11577,"알파":11578,"장교":11579,"##CTV":11580,"계란":11581,"태어났":11582,"학력":11583,"빌리":11584,"단백":11585,"유인":11586,"##ark":11587,"번지":11588,"클래스":11589,"흥분":11590,"협동":11591,"##ian":11592,"프로세":11593,"근접":11594,"노란":11595,"성취":11596,"과잉":11597,"당뇨":11598,"110":11599,"둔화":11600,"야생":11601,"터널":11602,"CCTV":11603,"나타냈":11604,"약화":11605,"광범":11606,"환경부":11607,"US":11608,"주저":11609,"투자가":11610,"이치":11611,"##레이션":11612,"사망자":11613,"때리":11614,"상향":11615,"실의":11616,"감사원":11617,"오버":11618,"정규직":11619,"레이스":11620,"삭감":11621,"중립":11622,"##작스":11623,"포의":11624,"광역시":11625,"교차":11626,"일곱":11627,"공격력":11628,"노하우":11629,"파란":11630,"료의":11631,"여왕":11632,"등록금":11633,"교통사고":11634,"돌아보":11635,"CN":11636,"누워":11637,"창립":11638,"핵실험":11639,"지원금":11640,"절대로":11641,"내달":11642,"부근":11643,"어려웠":11644,"서방":11645,"제고":11646,"모시":11647,"혈압":11648,"##을까":11649,"고무":11650,"이영":11651,"저렇":11652,"변형":11653,"그런지":11654,"안녕":11655,"##바람":11656,"도청":11657,"아메리카":11658,"서서히":11659,"당첨":11660,"못지":11661,"##머스":11662,"GDP":11663,"구해":11664,"금품":11665,"끌려":11666,"잡아":11667,"모순":11668,"마구":11669,"발레":11670,"감수":11671,"1500":11672,"용량":11673,"일간":11674,"처방":11675,"합성":11676,"바꿀":11677,"명목":11678,"해변":11679,"어떨":11680,"상세":11681,"아픔":11682,"난이도":11683,"##80":11684,"꼽히":11685,"아름다움":11686,"봐요":11687,"원조":11688,"지지자":11689,"문건":11690,"농산물":11691,"초월":11692,"기술력":11693,"산림":11694,"염두":11695,"솔루션":11696,"강해":11697,"언덕":11698,"일부러":11699,"##남도":11700,"토의":11701,"취해":11702,"양도":11703,"포켓":11704,"무효":11705,"유효":11706,"흡연":11707,"드물":11708,"더욱이":11709,"지르":11710,"화요일":11711,"자매":11712,"간편":11713,"피할":11714,"첫날":11715,"트랙":11716,"준수":11717,"키스":11718,"별명":11719,"수험":11720,"장인":11721,"도둑":11722,"면담":11723,"도민":11724,"진전":11725,"##ib":11726,"IB":11727,"그분":11728,"유세":11729,"전투기":11730,"지붕":11731,"감당":11732,"중견":11733,"운항":11734,"보석":11735,"브로":11736,"##ast":11737,"간사":11738,"자회사":11739,"기호":11740,"업자":11741,"##토리":11742,"##놀이":11743,"##데미":11744,"쌍용":11745,"반란":11746,"상영":11747,"갑작스":11748,"계승":11749,"##화문":11750,"동계":11751,"시달리":11752,"비치":11753,"미쳤":11754,"베이스":11755,"부산시":11756,"포괄":11757,"총기":11758,"음식점":11759,"뛰어들":11760,"##닉스":11761,"상금":11762,"##ttp":11763,"##ne":11764,"개장":11765,"수산":11766,"재현":11767,"클리":11768,"파운드":11769,"성우":11770,"시켜야":11771,"주고":11772,"맡기":11773,"써야":11774,"수요일":11775,"배운":11776,"제발":11777,"##다지":11778,"출생":11779,"출동":11780,"억지":11781,"전교":11782,"http":11783,"불꽃":11784,"상관없이":11785,"후쿠":11786,"vs":11787,"무서운":11788,"##져서":11789,"지은":11790,"동남아":11791,"힘입":11792,"내릴":11793,"신성":11794,"결성":11795,"전신":11796,"1989":11797,"여파":11798,"어르신":11799,"고가":11800,"어두운":11801,"전기차":11802,"횟수":11803,"탐구":11804,"명은":11805,"놀랐":11806,"정한":11807,"1987":11808,"확립":11809,"불안감":11810,"##제품":11811,"de":11812,"아카데미":11813,"BM":11814,"항공사":11815,"잃어버":11816,"도저히":11817,"##낸다":11818,"대조":11819,"트레":11820,"교원":11821,"배포":11822,"필자":11823,"자부":11824,"##ord":11825,"합법":11826,"재직":11827,"부스":11828,"계곡":11829,"신상":11830,"CD":11831,"벨트":11832,"상속":11833,"절망":11834,"##느리":11835,"내놨":11836,"뛰어넘":11837,"네티":11838,"관장":11839,"양보":11840,"##체스터":11841,"김일":11842,"##게요":11843,"보낼":11844,"아사":11845,"수명":11846,"종전":11847,"향기":11848,"등지":11849,"발주":11850,"잉글":11851,"탁월":11852,"IC":11853,"목요일":11854,"냉장고":11855,"보라":11856,"호응":11857,"단행":11858,"마산":11859,"대사관":11860,"모험":11861,"앞선":11862,"세무":11863,"이산":11864,"오의":11865,"##지능":11866,"노르":11867,"##ee":11868,"##ss":11869,"다녔":11870,"아시안":11871,"클릭":11872,"물고기":11873,"본선":11874,"용지":11875,"##더스":11876,"농담":11877,"스킨":11878,"마일":11879,"안양":11880,"인공지능":11881,"넘어서":11882,"판의":11883,"선행":11884,"참모":11885,"이루어진":11886,"응시":11887,"##트롤":11888,"##ain":11889,"한류":11890,"약점":11891,"##스토랑":11892,"레스토랑":11893,"표지":11894,"몽골":11895,"우연히":11896,"성당":11897,"토록":11898,"##PS":11899,"달린":11900,"정세":11901,"피아노":11902,"수령":11903,"간판":11904,"커버":11905,"좌절":11906,"##오프":11907,"##매매":11908,"핑크":11909,"##져야":11910,"메이크업":11911,"그레이":11912,"네티즌":11913,"과시":11914,"장성":11915,"급등":11916,"따위":11917,"광범위":11918,"FA":11919,"하원":11920,"법조":11921,"달라지":11922,"내밀":11923,"마늘":11924,"##일러":11925,"##구역":11926,"타인":11927,"올릴":11928,"머릿":11929,"출판사":11930,"이태":11931,"가중":11932,"##고리":11933,"소멸":11934,"모이":11935,"내비":11936,"에드":11937,"##DI":11938,"이득":11939,"머무":11940,"어지":11941,"코스닥":11942,"펼쳤":11943,"수송":11944,"중화":11945,"죄송":11946,"##ect":11947,"이적":11948,"간식":11949,"내장":11950,"지났":11951,"위력":11952,"좌석":11953,"져야":11954,"치매":11955,"미루":11956,"구두":11957,"이쪽":11958,"온다":11959,"##ight":11960,"소유자":11961,"박원":11962,"숨진":11963,"새겨":11964,"주고받":11965,"시집":11966,"단체장":11967,"댄스":11968,"전차":11969,"눈빛":11970,"한진":11971,"공기업":11972,"올라오":11973,"지경":11974,"축적":11975,"sh":11976,"으려는":11977,"개소":11978,"감면":11979,"민간인":11980,"감기":11981,"스카이":11982,"코미":11983,"일체":11984,"으신":11985,"원료":11986,"스펙":11987,"##ran":11988,"##북도":11989,"침입":11990,"우스":11991,"주세요":11992,"##스트라":11993,"관해":11994,"차트":11995,"##드라":11996,"오사":11997,"줄일":11998,"스미":11999,"선포":12000,"패치":12001,"##병대":12002,"생애":12003,"국당":12004,"브레이":12005,"##식간":12006,"##지니어":12007,"빈곤":12008,"카르":12009,"피우":12010,"백인":12011,"안타깝":12012,"브라운":12013,"작의":12014,"160":12015,"파라":12016,"왕국":12017,"##규모":12018,"토끼":12019,"유물":12020,"폭풍":12021,"베네":12022,"확고":12023,"전지":12024,"##ont":12025,"포지":12026,"##니즘":12027,"단과":12028,"복용":12029,"건설사":12030,"벌인":12031,"보충":12032,"서둘러":12033,"천재":12034,"급격히":12035,"치를":12036,"골프장":12037,"보복":12038,"흑자":12039,"OE":12040,"제로":12041,"상주":12042,"라스":12043,"렌즈":12044,"인격":12045,"##유럽":12046,"지적도":12047,"센서":12048,"출구":12049,"접하":12050,"입맛":12051,"파주":12052,"피곤":12053,"태양광":12054,"떠올리":12055,"##사스":12056,"실점":12057,"수신":12058,"횡령":12059,"##리케이션":12060,"해설":12061,"수소":12062,"그다지":12063,"요금제":12064,"광주시":12065,"거세":12066,"##ure":12067,"아쉬움":12068,"주머니":12069,"##수수색":12070,"추산":12071,"압수수색":12072,"국세청":12073,"대단히":12074,"장과":12075,"140":12076,"충성":12077,"추출":12078,"허브":12079,"임상":12080,"활의":12081,"일주일":12082,"나뉘":12083,"떠올랐":12084,"성사":12085,"나선다":12086,"##온다":12087,"떨어진다":12088,"##위원":12089,"##ah":12090,"커졌":12091,"소주":12092,"수시로":12093,"대치":12094,"택배":12095,"북측":12096,"인쇄":12097,"소규모":12098,"##멘트":12099,"순이익":12100,"추격":12101,"김정일":12102,"건네":12103,"김수":12104,"요새":12105,"빨라":12106,"세련":12107,"일본인":12108,"화합":12109,"염려":12110,"하도":12111,"은지":12112,"조율":12113,"천의":12114,"##걸음":12115,"순식간":12116,"이야말로":12117,"리모":12118,"통행":12119,"폴란드":12120,"여주":12121,"##두르":12122,"모금":12123,"결단":12124,"수호":12125,"소용":12126,"장학금":12127,"불신":12128,"시술":12129,"이듬":12130,"정교":12131,"##저기":12132,"##몬드":12133,"재발":12134,"LED":12135,"반짝":12136,"Al":12137,"양측":12138,"##끄럽":12139,"안쪽":12140,"어라":12141,"클라우드":12142,"단백질":12143,"여기저기":12144,"바둑":12145,"병의":12146,"내세우":12147,"박영":12148,"냐는":12149,"강남구":12150,"암살":12151,"될까":12152,"SM":12153,"계신":12154,"출처":12155,"안다":12156,"비유":12157,"역임":12158,"다의":12159,"##ail":12160,"부착":12161,"그래픽":12162,"통로":12163,"텍스트":12164,"조국":12165,"폭로":12166,"양이":12167,"가죽":12168,"시너지":12169,"##OC":12170,"일과":12171,"노동조합":12172,"개조":12173,"##se":12174,"숙소":12175,"잠실":12176,"트로":12177,"##시장":12178,"날카":12179,"연세대":12180,"분량":12181,"컨트롤":12182,"나이트":12183,"##걸이":12184,"김민":12185,"NC":12186,"##AS":12187,"영리":12188,"##느님":12189,"##ith":12190,"##60":12191,"노벨":12192,"노릇":12193,"119":12194,"선제":12195,"강렬":12196,"부추":12197,"이뤄질":12198,"##오스":12199,"소집":12200,"지형":12201,"유래":12202,"##밀히":12203,"##ER":12204,"교정":12205,"십자":12206,"프랜":12207,"이듬해":12208,"인턴":12209,"##시간":12210,"러브":12211,"##관계":12212,"원화":12213,"채로":12214,"아닌데":12215,"하수":12216,"괴물":12217,"사와":12218,"터져":12219,"텍사스":12220,"삼국":12221,"물러나":12222,"게재":12223,"##셔널":12224,"집값":12225,"하느님":12226,"해산":12227,"매트":12228,"예컨대":12229,"고스란히":12230,"침몰":12231,"천문":12232,"편이":12233,"무거운":12234,"두루":12235,"사라진":12236,"적립":12237,"##틀랜드":12238,"##뜨렸":12239,"호랑이":12240,"경유":12241,"주연":12242,"이은":12243,"##end":12244,"배신":12245,"도요":12246,"드론":12247,"소득세":12248,"건국":12249,"스승":12250,"신념":12251,"만하":12252,"집의":12253,"건축물":12254,"모씨":12255,"자존심":12256,"기다렸":12257,"민영":12258,"명회":12259,"이윤":12260,"약의":12261,"관람객":12262,"학살":12263,"##NG":12264,"위생":12265,"중지":12266,"##본다":12267,"엇갈":12268,"동행":12269,"단호":12270,"모범":12271,"##ial":12272,"##루스":12273,"강아지":12274,"들여다보":12275,"경제학":12276,"둘러보":12277,"##슬러":12278,"찾아내":12279,"권유":12280,"무더":12281,"내려오":12282,"탈퇴":12283,"검거":12284,"폴리":12285,"기인":12286,"발간":12287,"착공":12288,"피의자":12289,"온몸":12290,"착한":12291,"크로스":12292,"##아웃":12293,"무섭":12294,"에도":12295,"오로지":12296,"역설":12297,"성경":12298,"무너지":12299,"다큐":12300,"용의자":12301,"성폭력":12302,"상점":12303,"꾸며":12304,"침략":12305,"성추":12306,"알코":12307,"달콤":12308,"리포트":12309,"간호사":12310,"노동부":12311,"설탕":12312,"##외선":12313,"유독":12314,"떨어질":12315,"저하":12316,"소니":12317,"으론":12318,"분배":12319,"포토":12320,"기동":12321,"##구니":12322,"파도":12323,"보물":12324,"이병":12325,"지검":12326,"폭스":12327,"주름":12328,"ㅠㅠㅠ":12329,"아냐":12330,"##보드":12331,"걸릴":12332,"국물":12333,"pp":12334,"사거리":12335,"기쁘":12336,"영원히":12337,"착각":12338,"스피드":12339,"맨체스터":12340,"블라":12341,"작정":12342,"활력":12343,"일러":12344,"##ass":12345,"취미":12346,"업적":12347,"공직자":12348,"장갑":12349,"평론":12350,"부재":12351,"아르헨":12352,"특혜":12353,"소극":12354,"인접":12355,"연도":12356,"장려":12357,"던졌":12358,"김연":12359,"유승민":12360,"##마토":12361,"하나하나":12362,"##지부":12363,"입국":12364,"물려":12365,"아르헨티나":12366,"가루":12367,"피터":12368,"혐오":12369,"시드":12370,"가까워":12371,"성질":12372,"바꾼":12373,"##배우":12374,"미용":12375,"크루즈":12376,"까다":12377,"방통":12378,"성숙":12379,"사업장":12380,"##야마":12381,"내역":12382,"스트라이":12383,"들어선":12384,"1950":12385,"수장":12386,"사흘":12387,"유감":12388,"당사":12389,"일선":12390,"떠오":12391,"가맹점":12392,"갈아":12393,"불황":12394,"헬기":12395,"찾아오":12396,"농도":12397,"의정부":12398,"##저스":12399,"함정":12400,"제법":12401,"성추행":12402,"근원":12403,"산소":12404,"광화문":12405,"한자":12406,"행성":12407,"출현":12408,"날리":12409,"대략":12410,"돌보":12411,"열쇠":12412,"혼합":12413,"전액":12414,"안산":12415,"비주":12416,"책정":12417,"LH":12418,"플라스":12419,"소홀":12420,"남양":12421,"나빠":12422,"최다":12423,"장벽":12424,"##차례":12425,"유망":12426,"##동강":12427,"전송":12428,"반사":12429,"토크":12430,"물어":12431,"사막":12432,"기뻐":12433,"도모":12434,"풀리":12435,"만다":12436,"188":12437,"문인":12438,"호기심":12439,"알코올":12440,"따라가":12441,"끄덕":12442,"해임":12443,"베를":12444,"##조리":12445,"잉글랜드":12446,"##40":12447,"호르":12448,"남용":12449,"인천시":12450,"태극":12451,"요약":12452,"목욕":12453,"마인":12454,"##니스트":12455,"출국":12456,"쇄신":12457,"진압":12458,"만성":12459,"일명":12460,"기각":12461,"##쟁이":12462,"##ick":12463,"자사":12464,"으면서도":12465,"신이":12466,"##데스":12467,"써서":12468,"리가":12469,"우크라":12470,"신혼":12471,"##uc":12472,"걸친":12473,"바쁜":12474,"세미나":12475,"가져다":12476,"##브리드":12477,"가해자":12478,"##일으":12479,"불러일으":12480,"화살":12481,"##ust":12482,"게이트":12483,"##바라":12484,"감싸":12485,"성매매":12486,"헬스":12487,"하이브리드":12488,"배의":12489,"음모":12490,"재활":12491,"가리키":12492,"막판":12493,"워치":12494,"김지":12495,"득표":12496,"저지른":12497,"정국":12498,"##행위":12499,"낯선":12500,"##급식":12501,"##ly":12502,"아이스":12503,"응용":12504,"라든가":12505,"이례":12506,"양심":12507,"거뒀":12508,"저질":12509,"피고인":12510,"집착":12511,"이어진":12512,"##현진":12513,"상정":12514,"등판":12515,"무상급식":12516,"오피스텔":12517,"유가족":12518,"중산":12519,"##바이트":12520,"CBS":12521,"병역":12522,"광명":12523,"##어질":12524,"벌여":12525,"목포":12526,"언더":12527,"유료":12528,"모인":12529,"억압":12530,"관중":12531,"고려대":12532,"만하다":12533,"그만두":12534,"십니까":12535,"시카":12536,"점프":12537,"한방":12538,"분과":12539,"SU":12540,"정의당":12541,"성형":12542,"##범죄":12543,"위해선":12544,"군부":12545,"말의":12546,"울리":12547,"수확":12548,"간절":12549,"이뤄지지":12550,"연동":12551,"전격":12552,"##무기":12553,"프레임":12554,"주시":12555,"랍니다":12556,"is":12557,"반환":12558,"배웠":12559,"수감":12560,"##먼트":12561,"셔야":12562,"내주":12563,"포스팅":12564,"발음":12565,"국채":12566,"부유":12567,"서면":12568,"워터":12569,"교역":12570,"쏟아지":12571,"가져가":12572,"보강":12573,"실효":12574,"송도":12575,"경사":12576,"##son":12577,"경관":12578,"요양":12579,"우세":12580,"극심":12581,"농성":12582,"공조":12583,"FI":12584,"##유산":12585,"시비":12586,"반려":12587,"발명":12588,"한은":12589,"잔뜩":12590,"달랐":12591,"자격증":12592,"##릭스":12593,"스토어":12594,"석방":12595,"집어":12596,"우편":12597,"주어진":12598,"연이":12599,"##eb":12600,"벤치":12601,"파문":12602,"열매":12603,"단다":12604,"전락":12605,"고고":12606,"눌러":12607,"도우":12608,"육상":12609,"이마":12610,"자이":12611,"##널드":12612,"##치기":12613,"부와":12614,"##ng":12615,"캠핑":12616,"해결책":12617,"##빨리":12618,"##난다":12619,"101":12620,"축산":12621,"승무원":12622,"그랜드":12623,"아닙니까":12624,"왕조":12625,"신축":12626,"부러":12627,"애국":12628,"보드":12629,"Th":12630,"##이터":12631,"수성":12632,"##기에":12633,"아티":12634,"베이비":12635,"상용":12636,"한우":12637,"초콜":12638,"메리":12639,"##밀리":12640,"당기":12641,"해법":12642,"당할":12643,"추경":12644,"##릅니다":12645,"다짐":12646,"##ef":12647,"해경":12648,"함부":12649,"낚시":12650,"거품":12651,"엔지니어":12652,"출력":12653,"서식":12654,"최상":12655,"헤이":12656,"어선":12657,"tv":12658,"외곽":12659,"주파":12660,"혈관":12661,"로버트":12662,"관심사":12663,"반찬":12664,"전철":12665,"최경":12666,"낙찰":12667,"학년도":12668,"최순":12669,"우정":12670,"생리":12671,"노스":12672,"게시판":12673,"랭킹":12674,"버락":12675,"가라앉":12676,"샐러드":12677,"조속":12678,"여학생":12679,"송의":12680,"어머":12681,"이순":12682,"##세포":12683,"HD":12684,"생선":12685,"주유소":12686,"ST":12687,"열려":12688,"메모리":12689,"되풀이":12690,"##로나":12691,"OECD":12692,"##ld":12693,"오케":12694,"마라톤":12695,"연루":12696,"백신":12697,"포로":12698,"코미디":12699,"루이스":12700,"##보내":12701,"##워야":12702,"모니터링":12703,"군데":12704,"예술가":12705,"견디":12706,"반전":12707,"책임지":12708,"기성":12709,"구사":12710,"방송사":12711,"고쳐":12712,"보증금":12713,"매월":12714,"기다려":12715,"파고":12716,"약자":12717,"화해":12718,"187":12719,"제휴":12720,"##센터":12721,"소감":12722,"시한":12723,"조회":12724,"적대":12725,"잡히":12726,"분담":12727,"논술":12728,"사양":12729,"취한":12730,"공백":12731,"김광":12732,"넥센":12733,"외국어":12734,"로맨":12735,"비결":12736,"오프라인":12737,"##ork":12738,"치솟":12739,"아닌지":12740,"##운전":12741,"간격":12742,"과자":12743,"중복":12744,"기둥":12745,"대에":12746,"방과":12747,"신종":12748,"지각":12749,"강간":12750,"##토록":12751,"의제":12752,"의약품":12753,"BMW":12754,"비자":12755,"동북아":12756,"아키":12757,"연비":12758,"한양":12759,"##셉트":12760,"바쁘":12761,"장난감":12762,"골든":12763,"경보":12764,"살피":12765,"처장":12766,"가져오":12767,"머릿속":12768,"앞장서":12769,"장미":12770,"동굴":12771,"장거리":12772,"명문":12773,"준다는":12774,"양육":12775,"한전":12776,"##성기":12777,"우즈":12778,"프리미어":12779,"시야":12780,"신생":12781,"우린":12782,"항만":12783,"교도소":12784,"여고":12785,"전월":12786,"정복":12787,"안동":12788,"##OU":12789,"거둔":12790,"접어들":12791,"어딘":12792,"##per":12793,"선원":12794,"웨스트":12795,"1986":12796,"수여":12797,"연패":12798,"상권":12799,"원한":12800,"맞춘":12801,"회원국":12802,"라기":12803,"추위":12804,"으려면":12805,"모형":12806,"가드":12807,"헌신":12808,"서점":12809,"쓴다":12810,"스페셜":12811,"대접":12812,"##들여":12813,"애플리케이션":12814,"에어컨":12815,"학업":12816,"살림":12817,"신나":12818,"다크":12819,"높일":12820,"기증":12821,"정해진":12822,"휴일":12823,"##af":12824,"버그":12825,"열악":12826,"종업":12827,"이루어져":12828,"당선자":12829,"시행령":12830,"##nt":12831,"반기":12832,"사각":12833,"스코틀랜드":12834,"열풍":12835,"절약":12836,"도리":12837,"지옥":12838,"구리":12839,"돌렸":12840,"탐사":12841,"식구":12842,"퍼지":12843,"디젤":12844,"##ment":12845,"영주":12846,"대충":12847,"산정":12848,"부수":12849,"##카락":12850,"Pr":12851,"머리카락":12852,"##IC":12853,"청정":12854,"소식통":12855,"기숙":12856,"궤도":12857,"지상파":12858,"파키스탄":12859,"거실":12860,"야채":12861,"우드":12862,"힐링":12863,"플라스틱":12864,"항구":12865,"루트":12866,"저소득층":12867,"수련":12868,"조상":12869,"해라":12870,"외출":12871,"제압":12872,"정화":12873,"일으켜":12874,"엔딩":12875,"토로":12876,"##ond":12877,"분포":12878,"탄탄":12879,"공산당":12880,"외무":12881,"선명":12882,"수강":12883,"##oy":12884,"모스크":12885,"성서":12886,"나타날":12887,"상상력":12888,"돌아갔":12889,"어떨까":12890,"니까요":12891,"말리":12892,"우회":12893,"파장":12894,"합작":12895,"망의":12896,"새우":12897,"체감":12898,"밀접":12899,"여전":12900,"홍준":12901,"촉촉":12902,"만주":12903,"name":12904,"검정":12905,"약하":12906,"조카":12907,"전진":12908,"##ore":12909,"현명":12910,"송파":12911,"급락":12912,"##집니다":12913,"옹호":12914,"막상":12915,"##일이":12916,"박계":12917,"코어":12918,"##봐야":12919,"대세":12920,"마이너스":12921,"##io":12922,"사도":12923,"은가":12924,"인지도":12925,"치우":12926,"에이스":12927,"스캔":12928,"인건":12929,"군주":12930,"##주의자":12931,"찾아볼":12932,"##십시오":12933,"파격":12934,"##가리":12935,"한결":12936,"숨기":12937,"시위대":12938,"지우":12939,"약해":12940,"진도":12941,"이인":12942,"스쿨":12943,"사명":12944,"##어내":12945,"홍수":12946,"끌어들":12947,"중기":12948,"열릴":12949,"적혀":12950,"보험금":12951,"신흥":12952,"닥터":12953,"##패드":12954,"전도":12955,"돌아다니":12956,"나노":12957,"법령":12958,"Un":12959,"쿠바":12960,"오마":12961,"포르투":12962,"국왕":12963,"발길":12964,"잔인":12965,"유방":12966,"초등학생":12967,"그해":12968,"검진":12969,"귀찮":12970,"단편":12971,"한국은행":12972,"신도":12973,"도지사":12974,"연승":12975,"탱크":12976,"관계없이":12977,"잡혀":12978,"리드":12979,"기원전":12980,"입건":12981,"수차례":12982,"였을":12983,"팔리":12984,"옮겼":12985,"동결":12986,"통일부":12987,"##bs":12988,"Com":12989,"맞대":12990,"광복":12991,"전임":12992,"동지":12993,"경호":12994,"인체":12995,"종업원":12996,"편견":12997,"##어로":12998,"##TV":12999,"##ice":13000,"앤드":13001,"전작":13002,"일일이":13003,"위법":13004,"례의":13005,"인성":13006,"냐면":13007,"들어올":13008,"##ear":13009,"운동장":13010,"홍준표":13011,"지성":13012,"양파":13013,"이데":13014,"튼튼":13015,"보행":13016,"낙동강":13017,"복제":13018,"밀양":13019,"타점":13020,"등기":13021,"할리":13022,"호르몬":13023,"알레":13024,"##ex":13025,"신탁":13026,"도출":13027,"격리":13028,"파산":13029,"##옵니다":13030,"미흡":13031,"글씨":13032,"##타운":13033,"하로":13034,"다가가":13035,"입수":13036,"시립":13037,"필름":13038,"디스크":13039,"메달":13040,"속이":13041,"효력":13042,"##서리":13043,"강동":13044,"생산량":13045,"리뷰":13046,"다이아":13047,"스테이지":13048,"커질":13049,"선장":13050,"##ula":13051,"쌓여":13052,"선거법":13053,"보리":13054,"악기":13055,"SP":13056,"이어져":13057,"섹스":13058,"왠지":13059,"신형":13060,"은근":13061,"##관위":13062,"석탄":13063,"날려":13064,"아가씨":13065,"스티븐":13066,"SS":13067,"포켓몬":13068,"원형":13069,"지루":13070,"KTX":13071,"조그":13072,"인명":13073,"진동":13074,"멘토":13075,"강좌":13076,"170":13077,"잠정":13078,"카라":13079,"경과":13080,"최우선":13081,"체질":13082,"노트북":13083,"인건비":13084,"고치":13085,"안건":13086,"##산부":13087,"흥국":13088,"히어로":13089,"관광지":13090,"1985":13091,"어느새":13092,"벨기에":13093,"껍질":13094,"중년":13095,"매번":13096,"청탁":13097,"바가":13098,"내외":13099,"루이":13100,"안개":13101,"수상자":13102,"##저리":13103,"클리어":13104,"연다":13105,"부에":13106,"단정":13107,"일제히":13108,"화상":13109,"손자":13110,"레이저":13111,"주역":13112,"얼른":13113,"form":13114,"##프리카":13115,"베를린":13116,"##교통":13117,"최적":13118,"정유":13119,"초콜릿":13120,"임대료":13121,"##거나":13122,"##징금":13123,"##소시":13124,"배후":13125,"작중":13126,"우울증":13127,"세입":13128,"위조":13129,"사령부":13130,"엉덩이":13131,"임차":13132,"사료":13133,"일산":13134,"정관":13135,"재판소":13136,"개관":13137,"재학":13138,"대피":13139,"활기":13140,"맞물":13141,"탄압":13142,"사라져":13143,"모리":13144,"배우자":13145,"해운대":13146,"포지션":13147,"화보":13148,"##IP":13149,"친척":13150,"캐스":13151,"복음":13152,"위가":13153,"트라":13154,"##aw":13155,"##qu":13156,"연재":13157,"##올로":13158,"용이":13159,"치아":13160,"제사":13161,"놀랍":13162,"반지":13163,"증후":13164,"박차":13165,"들어간다":13166,"언론사":13167,"내걸":13168,"LA":13169,"시상식":13170,"종사":13171,"매운":13172,"타협":13173,"떠날":13174,"다닐":13175,"몹시":13176,"어떻게":13177,"판매가":13178,"참전":13179,"케이크":13180,"길래":13181,"학급":13182,"그래야":13183,"배울":13184,"선보인":13185,"오락":13186,"박원순":13187,"##타르":13188,"MC":13189,"사운드":13190,"언스":13191,"제조사":13192,"Sh":13193,"##MC":13194,"방금":13195,"이대":13196,"미지":13197,"줘서":13198,"해치":13199,"ICT":13200,"sp":13201,"감독원":13202,"봐서":13203,"##셔츠":13204,"경영진":13205,"하향":13206,"아군":13207,"아님":13208,"상기":13209,"대법관":13210,"대수":13211,"휩싸":13212,"마리아":13213,"일수록":13214,"짜증":13215,"받아들일":13216,"애매":13217,"상품권":13218,"암시":13219,"지나친":13220,"백제":13221,"재해":13222,"주권":13223,"폭격":13224,"##EA":13225,"리서":13226,"하시":13227,"##바다":13228,"김병":13229,"비틀":13230,"하트":13231,"복의":13232,"치안":13233,"체류":13234,"협업":13235,"외신":13236,"이어진다":13237,"정직":13238,"접목":13239,"정치가":13240,"풍성":13241,"행운":13242,"배분":13243,"여덟":13244,"사제":13245,"어렸":13246,"모기":13247,"바꿨":13248,"광산":13249,"이어서":13250,"약세":13251,"호평":13252,"오사카":13253,"처형":13254,"퍼져":13255,"몸매":13256,"첼시":13257,"주전":13258,"보좌관":13259,"내려놓":13260,"입점":13261,"알렉산":13262,"본능":13263,"알바":13264,"되살":13265,"농어":13266,"배럴":13267,"출제":13268,"다름없":13269,"핵무기":13270,"민정":13271,"방한":13272,"을수록":13273,"갈비":13274,"나마":13275,"결함":13276,"혼인":13277,"대인":13278,"추첨":13279,"귀가":13280,"막내":13281,"##국수":13282,"##공항":13283,"주의자":13284,"##FC":13285,"으리라":13286,"전라":13287,"라든지":13288,"먹거리":13289,"습격":13290,"창당":13291,"사소":13292,"##무지":13293,"비추":13294,"아홉":13295,"선대":13296,"각오":13297,"구청장":13298,"유성":13299,"고래":13300,"여대":13301,"사모":13302,"당국자":13303,"##ory":13304,"천장":13305,"류현진":13306,"정동":13307,"초보":13308,"북구":13309,"으셨":13310,"처한":13311,"간섭":13312,"달래":13313,"아무튼":13314,"유나이":13315,"교훈":13316,"전염":13317,"거니":13318,"차려":13319,"세르":13320,"##네스":13321,"돌아갈":13322,"##age":13323,"꼬집":13324,"비닐":13325,"동아리":13326,"원은":13327,"##모토":13328,"마포":13329,"유나이티":13330,"농림":13331,"##로우":13332,"##키아":13333,"해리":13334,"넉넉":13335,"##라이언":13336,"뜨겁":13337,"##베이터":13338,"##ram":13339,"구로":13340,"극히":13341,"육박":13342,"명소":13343,"시어":13344,"인데도":13345,"지문":13346,"거래량":13347,"후손":13348,"몰라도":13349,"끊이":13350,"문득":13351,"##EC":13352,"도시락":13353,"리듬":13354,"실은":13355,"##업자":13356,"계파":13357,"려던":13358,"휴양":13359,"기상청":13360,"개발자":13361,"스파이":13362,"폐기물":13363,"186":13364,"##그라":13365,"고립":13366,"실명":13367,"귀여운":13368,"GB":13369,"금연":13370,"1984":13371,"스터":13372,"장례식":13373,"조짐":13374,"좌파":13375,"평일":13376,"져서":13377,"상임위":13378,"##TI":13379,"##내리":13380,"on":13381,"영문":13382,"자진":13383,"세수":13384,"차분":13385,"하인":13386,"교통부":13387,"증정":13388,"환의":13389,"##와서":13390,"똑똑":13391,"조류":13392,"이력":13393,"아르바이트":13394,"##스크림":13395,"비명":13396,"톡톡":13397,"하나다":13398,"버프":13399,"부풀":13400,"창원시":13401,"기르":13402,"곳도":13403,"셔츠":13404,"추방":13405,"하천":13406,"업소":13407,"Ar":13408,"신조":13409,"식이":13410,"울음":13411,"##질랜드":13412,"자르":13413,"쓰여":13414,"자영":13415,"##끄러운":13416,"성동":13417,"350":13418,"싶어요":13419,"##두리":13420,"생긴다":13421,"사이드":13422,"지가":13423,"기장":13424,"##sh":13425,"대여":13426,"못지않":13427,"스러웠":13428,"아산":13429,"종족":13430,"쫓겨":13431,"느냐고":13432,"때려":13433,"오이":13434,"스틸":13435,"##베스":13436,"성장세":13437,"사교육":13438,"뉴질랜드":13439,"자위":13440,"##ung":13441,"수법":13442,"요법":13443,"변호인":13444,"##세이":13445,"마루":13446,"원단":13447,"마신":13448,"퀘스트":13449,"저서":13450,"드린다":13451,"한눈":13452,"이분":13453,"공문":13454,"우호":13455,"마틴":13456,"물음":13457,"광부":13458,"##물산":13459,"부적절":13460,"느낀다":13461,"검출":13462,"오렌":13463,"황당":13464,"안겨":13465,"남동":13466,"김일성":13467,"미뤄":13468,"사우디":13469,"어긋":13470,"##70":13471,"##먼스":13472,"운반":13473,"심상":13474,"키워드":13475,"구할":13476,"부합":13477,"##프리":13478,"변해":13479,"은하":13480,"총격":13481,"아이스크림":13482,"과다":13483,"개체":13484,"틀림없":13485,"실전":13486,"프랜차":13487,"어색":13488,"##사리":13489,"타의":13490,"추상":13491,"##파크":13492,"삼성물산":13493,"먹스":13494,"샌드":13495,"논평":13496,"프란":13497,"##ind":13498,"##ence":13499,"아쉬운":13500,"법제":13501,"UN":13502,"리서치":13503,"시진":13504,"매진":13505,"##ary":13506,"해지":13507,"프랜차이즈":13508,"가산":13509,"성범죄":13510,"동성애":13511,"수직":13512,"전복":13513,"제네":13514,"간장":13515,"전과":13516,"클레":13517,"망설":13518,"고작":13519,"바디":13520,"넘어섰":13521,"마냥":13522,"라이벌":13523,"##oll":13524,"치가":13525,"플로리":13526,"##ber":13527,"향했":13528,"휘발":13529,"국비":13530,"숨지":13531,"에코":13532,"상해":13533,"야기":13534,"다는데":13535,"전산":13536,"마드리":13537,"아이패드":13538,"가담":13539,"우연":13540,"##ph":13541,"##테이너":13542,"제보":13543,"다닌":13544,"연내":13545,"타결":13546,"휴게":13547,"신랑":13548,"인가요":13549,"천사":13550,"단절":13551,"박주":13552,"##ical":13553,"이완":13554,"함대":13555,"##ies":13556,"you":13557,"드라이브":13558,"조선일보":13559,"마드리드":13560,"마력":13561,"푸틴":13562,"엘리트":13563,"전경":13564,"단식":13565,"##올로기":13566,"맡겨":13567,"레저":13568,"하버":13569,"흰색":13570,"입양":13571,"사위":13572,"코레":13573,"증후군":13574,"제작진":13575,"사마":13576,"거칠":13577,"초록":13578,"영등":13579,"##고속":13580,"참석자":13581,"요시":13582,"고인":13583,"경부":13584,"준다고":13585,"기세":13586,"풀려":13587,"속한":13588,"##연구":13589,"푸르":13590,"에다가":13591,"싸이":13592,"서브":13593,"지갑":13594,"사설":13595,"속속":13596,"팔레스":13597,"옵니다":13598,"오렌지":13599,"잃어버린":13600,"##mer":13601,"112":13602,"국민은행":13603,"##사업":13604,"범주":13605,"익히":13606,"이데올로기":13607,"납득":13608,"다시피":13609,"유비":13610,"1982":13611,"야마":13612,"잠수함":13613,"정전":13614,"가뭄":13615,"손쉽":13616,"CNN":13617,"동포":13618,"장기간":13619,"기울여":13620,"했으니":13621,"TF":13622,"Pro":13623,"전수":13624,"레스":13625,"주파수":13626,"킬로":13627,"##베리":13628,"차림":13629,"날아가":13630,"격렬":13631,"든든":13632,"여동생":13633,"후퇴":13634,"Sp":13635,"줄줄":13636,"기체":13637,"손목":13638,"온실":13639,"향수":13640,"베리":13641,"복장":13642,"컨셉":13643,"올라갔":13644,"박지원":13645,"군단":13646,"죽여":13647,"회상":13648,"갖췄":13649,"법인세":13650,"본다면":13651,"재계":13652,"무난":13653,"보살":13654,"팔레스타인":13655,"비스":13656,"청춘":13657,"각기":13658,"처녀":13659,"봉투":13660,"낭만":13661,"크리":13662,"##렉스":13663,"##니스탄":13664,"범죄자":13665,"##위원회":13666,"공영":13667,"지장":13668,"이대로":13669,"삼각":13670,"배틀":13671,"으라":13672,"##포먼스":13673,"토리":13674,"안방":13675,"퍼포먼스":13676,"믹스":13677,"밀집":13678,"우대":13679,"일본군":13680,"##ire":13681,"##테일":13682,"예언":13683,"파생":13684,"114":13685,"formula":13686,"##진보":13687,"타이밍":13688,"클로":13689,"##티아":13690,"미네":13691,"흘러나":13692,"모욕":13693,"실로":13694,"발병":13695,"다툼":13696,"비단":13697,"간신":13698,"##운서":13699,"발령":13700,"정신과":13701,"렀다":13702,"웬만":13703,"CP":13704,"지극":13705,"햇빛":13706,"후임":13707,"과실":13708,"아나운서":13709,"페어":13710,"##스카":13711,"결승전":13712,"규범":13713,"이석":13714,"##싸움":13715,"간단히":13716,"자부심":13717,"판타":13718,"교부":13719,"국감":13720,"양은":13721,"잠재력":13722,"척추":13723,"명확히":13724,"멸망":13725,"##숭이":13726,"감탄":13727,"주무":13728,"박종":13729,"너머":13730,"크라":13731,"안주":13732,"콘셉트":13733,"음원":13734,"회가":13735,"트래":13736,"품고":13737,"신년":13738,"연구자":13739,"귀신":13740,"전방":13741,"극심한":13742,"계약서":13743,"스탠드":13744,"구워":13745,"그루":13746,"로고":13747,"그늘":13748,"장병":13749,"고성":13750,"인적":13751,"발탁":13752,"##쳐서":13753,"가령":13754,"마나":13755,"애인":13756,"수혜":13757,"과반":13758,"소망":13759,"햇살":13760,"보트":13761,"통영":13762,"걸맞":13763,"연안":13764,"본문":13765,"함부로":13766,"실감":13767,"치밀":13768,"달렸":13769,"종사자":13770,"세로":13771,"환승":13772,"어째":13773,"반군":13774,"직선":13775,"가세":13776,"자들":13777,"전장":13778,"딸기":13779,"타율":13780,"레오":13781,"##소연":13782,"광양":13783,"대역":13784,"유예":13785,"##베르":13786,"어리석":13787,"관건":13788,"태우":13789,"최강":13790,"교대":13791,"교재":13792,"##10":13793,"천주":13794,"일가":13795,"##린다는":13796,"놓인":13797,"특권":13798,"뿌려":13799,"승강":13800,"토마토":13801,"##RA":13802,"보컬":13803,"공룡":13804,"물결":13805,"브루":13806,"담화":13807,"설사":13808,"엘리베이터":13809,"감히":13810,"공지":13811,"만점":13812,"구제역":13813,"자외선":13814,"불공":13815,"배수":13816,"거북":13817,"예배":13818,"무제":13819,"금강산":13820,"DNA":13821,"암호":13822,"##욕장":13823,"버섯":13824,"컨테이너":13825,"수질":13826,"자질":13827,"권장":13828,"마법사":13829,"##인지":13830,"좀처럼":13831,"##진보당":13832,"증여":13833,"공감대":13834,"원피스":13835,"펼쳐지":13836,"모스크바":13837,"산다":13838,"아줌":13839,"인자":13840,"스미스":13841,"공판":13842,"##우리":13843,"로즈":13844,"##ern":13845,"영세":13846,"총수":13847,"##사이":13848,"지구의":13849,"엉뚱":13850,"공립":13851,"중앙은행":13852,"캐스팅":13853,"1979":13854,"레이더":13855,"변했":13856,"단서":13857,"정산":13858,"알렸":13859,"등재":13860,"##이치":13861,"앞당":13862,"발송":13863,"##버리":13864,"하와":13865,"##영향":13866,"아티스트":13867,"서장":13868,"만지":13869,"아마존":13870,"덴마크":13871,"##MA":13872,"적시":13873,"할수록":13874,"##르기":13875,"소나무":13876,"변함":13877,"공존":13878,"놀란":13879,"승의":13880,"소아":13881,"집필":13882,"분해":13883,"닷컴":13884,"비해서":13885,"아줌마":13886,"##렉션":13887,"센트":13888,"조립":13889,"연평균":13890,"올레":13891,"KA":13892,"묘지":13893,"합창":13894,"앞세워":13895,"소액":13896,"특집":13897,"차가운":13898,"성장률":13899,"발걸음":13900,"각지":13901,"스타트업":13902,"##ook":13903,"휩쓸":13904,"기숙사":13905,"모양새":13906,"단가":13907,"의석":13908,"보름":13909,"카지":13910,"산출":13911,"간직":13912,"SUV":13913,"박탈":13914,"취할":13915,"##커녕":13916,"사방":13917,"경전":13918,"사임":13919,"통합진보당":13920,"분단":13921,"총력":13922,"이경":13923,"머물렀":13924,"브레이크":13925,"술집":13926,"##TO":13927,"신자":13928,"##려고":13929,"폭넓":13930,"##ens":13931,"총액":13932,"소폭":13933,"언론인":13934,"대주주":13935,"유진":13936,"첨가":13937,"과태":13938,"획기":13939,"찾아온":13940,"탐색":13941,"드문":13942,"##타이":13943,"숙제":13944,"전교조":13945,"관해서":13946,"함의":13947,"DJ":13948,"##자치":13949,"동이":13950,"이스트":13951,"##플레이션":13952,"##부르크":13953,"찾아왔":13954,"오케스트라":13955,"느껴졌":13956,"상륙":13957,"반격":13958,"대중교통":13959,"양극":13960,"아프가":13961,"CC":13962,"거제":13963,"남지":13964,"##oT":13965,"홍대":13966,"압축":13967,"연소":13968,"심리학":13969,"중형":13970,"직권":13971,"나눌":13972,"보너스":13973,"견인":13974,"멈춰":13975,"유령":13976,"공통점":13977,"자립":13978,"##슬림":13979,"원금":13980,"음에도":13981,"긴장감":13982,"려다":13983,"1983":13984,"중심지":13985,"물체":13986,"알뜰":13987,"아프가니스탄":13988,"들으면":13989,"오토바이":13990,"플레이오프":13991,"##로움":13992,"마술":13993,"민속":13994,"약정":13995,"자선":13996,"티셔츠":13997,"유포":13998,"정조":13999,"성명서":14000,"모호":14001,"들렸":14002,"과태료":14003,"오스트리아":14004,"마찰":14005,"행하":14006,"무슬림":14007,"거꾸":14008,"되돌아":14009,"국군":14010,"표결":14011,"으라고":14012,"##개발":14013,"달려가":14014,"##민주":14015,"인조":14016,"##ug":14017,"누릴":14018,"벤츠":14019,"시속":14020,"느냐는":14021,"조종사":14022,"카를":14023,"볶음":14024,"##셀로나":14025,"봉사자":14026,"유신":14027,"후계":14028,"심심":14029,"바르셀로나":14030,"양반":14031,"이노":14032,"저격":14033,"끼치":14034,"선조":14035,"필립":14036,"승점":14037,"신원":14038,"교감":14039,"며느리":14040,"오리지":14041,"중진":14042,"방문객":14043,"이뤘":14044,"천하":14045,"접시":14046,"카운티":14047,"모토":14048,"시진핑":14049,"##매도":14050,"덩어리":14051,"차익":14052,"상관없":14053,"항해":14054,"순찰":14055,"##ver":14056,"데스":14057,"실리콘":14058,"존슨":14059,"##평가":14060,"포스터":14061,"샤워":14062,"창구":14063,"##운다":14064,"감찰":14065,"##LL":14066,"세균":14067,"##퍼런스":14068,"욕설":14069,"개개":14070,"대왕":14071,"수제":14072,"화두":14073,"갑니다":14074,"텐트":14075,"박상":14076,"리버풀":14077,"강변":14078,"대리점":14079,"스노":14080,"객실":14081,"배추":14082,"정문":14083,"##타리":14084,"시카고":14085,"평론가":14086,"회생":14087,"##멘터리":14088,"쿠데":14089,"미분":14090,"제치":14091,"무늬":14092,"착륙":14093,"##걸리":14094,"씨앗":14095,"##살이":14096,"냉동":14097,"쏠리":14098,"발판":14099,"무단":14100,"편한":14101,"실버":14102,"위임":14103,"외쳤":14104,"소설가":14105,"공연장":14106,"IoT":14107,"노숙":14108,"위헌":14109,"부른":14110,"넘쳐":14111,"싱크":14112,"보단":14113,"DM":14114,"온천":14115,"##경기":14116,"정몽":14117,"잔치":14118,"재킷":14119,"잠들":14120,"자영업":14121,"보람":14122,"상시":14123,"다큐멘터리":14124,"박성":14125,"달의":14126,"움직일":14127,"##ock":14128,"정진":14129,"영등포":14130,"정립":14131,"대포":14132,"주둔":14133,"서적":14134,"##레이터":14135,"파동":14136,"김형":14137,"상수":14138,"선관위":14139,"권역":14140,"막걸리":14141,"악용":14142,"##지기":14143,"정년":14144,"매개":14145,"악재":14146,"채취":14147,"액수":14148,"하락세":14149,"사직":14150,"##olog":14151,"다채":14152,"외식":14153,"근절":14154,"##다임":14155,"보선":14156,"##오리":14157,"패러다임":14158,"꼼꼼히":14159,"망치":14160,"준의":14161,"105":14162,"막히":14163,"한중":14164,"달라졌":14165,"징수":14166,"##커스":14167,"용병":14168,"재선":14169,"비대위":14170,"취했":14171,"구급":14172,"끈다":14173,"여름철":14174,"내신":14175,"국수":14176,"리아":14177,"1200":14178,"입단":14179,"침투":14180,"정자":14181,"종로구":14182,"이상인":14183,"걸어가":14184,"청취":14185,"##90":14186,"적당히":14187,"math":14188,"이송":14189,"에릭":14190,"은폐":14191,"##철도":14192,"걸까":14193,"돌아올":14194,"훌쩍":14195,"안성":14196,"망명":14197,"ㅜㅜ":14198,"진이":14199,"마르크스":14200,"부엌":14201,"##LS":14202,"기득":14203,"동정":14204,"강정":14205,"면모":14206,"리비아":14207,"김선":14208,"임용":14209,"##연대":14210,"이겼":14211,"중세":14212,"괜히":14213,"##저우":14214,"강서":14215,"구장":14216,"##지대":14217,"방출":14218,"고등학생":14219,"센스":14220,"AS":14221,"미미":14222,"이해관계":14223,"실습":14224,"ar":14225,"자유주의":14226,"하고":14227,"##ES":14228,"오만":14229,"쿼터":14230,"경쟁자":14231,"##ohn":14232,"##테르":14233,"##one":14234,"합니까":14235,"나치":14236,"외상":14237,"도장":14238,"줄곧":14239,"정답":14240,"두꺼":14241,"한인":14242,"접종":14243,"##붙이":14244,"달라진":14245,"챔피언십":14246,"후지":14247,"##매김":14248,"시일":14249,"거꾸로":14250,"이승만":14251,"쌍둥이":14252,"자리매김":14253,"서정":14254,"마사지":14255,"##방울":14256,"##나물":14257,"염증":14258,"공습":14259,"키즈":14260,"##저트":14261,"에버":14262,"국악":14263,"회화":14264,"연일":14265,"응답자":14266,"지식인":14267,"일본어":14268,"정시":14269,"1981":14270,"이식":14271,"##투스":14272,"냉정":14273,"강력히":14274,"한다며":14275,"쿠폰":14276,"매립":14277,"차리":14278,"더라면":14279,"시아":14280,"김승":14281,"유머":14282,"강자":14283,"##bc":14284,"우아":14285,"실상":14286,"발자":14287,"구절":14288,"퇴진":14289,"일괄":14290,"토너":14291,"프레스":14292,"기생":14293,"이브":14294,"중소형":14295,"치과":14296,"김장":14297,"식탁":14298,"숨졌":14299,"##가족":14300,"저지르":14301,"ET":14302,"군산":14303,"우물":14304,"##ational":14305,"보건복":14306,"쏟아져":14307,"SW":14308,"복사":14309,"흉기":14310,"늑대":14311,"자란":14312,"니콜":14313,"입대":14314,"표출":14315,"##북자":14316,"해야지":14317,"빠질":14318,"##팡이":14319,"뚜껑":14320,"무겁":14321,"##에르":14322,"장마":14323,"전두":14324,"민사":14325,"VR":14326,"증가세":14327,"##틀러":14328,"비춰":14329,"걸림":14330,"독립운동":14331,"이원":14332,"##르르":14333,"가르침":14334,"pro":14335,"##레나":14336,"엑스포":14337,"##센티브":14338,"산악":14339,"왕실":14340,"인센티브":14341,"낙관":14342,"전문점":14343,"프로세스":14344,"페미":14345,"미얀":14346,"코믹":14347,"슬픈":14348,"넘겼":14349,"기습":14350,"낙하":14351,"an":14352,"결산":14353,"옮긴":14354,"LCD":14355,"통산":14356,"##호텔":14357,"간신히":14358,"연체":14359,"친정":14360,"##본부":14361,"연쇄":14362,"2500":14363,"테니":14364,"##유예":14365,"교양":14366,"미성":14367,"##pp":14368,"수비수":14369,"할당":14370,"에르":14371,"부임":14372,"실린":14373,"바나":14374,"생각나":14375,"마는":14376,"불린다":14377,"가혹":14378,"##ann":14379,"해피":14380,"트윗":14381,"한잔":14382,"360":14383,"튀어나":14384,"동호":14385,"추운":14386,"잔디":14387,"인텔":14388,"각별":14389,"갇혀":14390,"협동조합":14391,"불참":14392,"나기":14393,"정류":14394,"버거":14395,"딜러":14396,"메디":14397,"##시설":14398,"김한":14399,"AR":14400,"Mr":14401,"ex":14402,"##시스코":14403,"다투":14404,"주어지":14405,"신한은행":14406,"충당":14407,"가로막":14408,"강수":14409,"과천":14410,"친화":14411,"도널드":14412,"사적":14413,"원했":14414,"조장":14415,"통사":14416,"뒤따":14417,"##노스":14418,"억지로":14419,"밸리":14420,"##플러스":14421,"AT":14422,"매물":14423,"황의":14424,"자택":14425,"다이아몬드":14426,"문단":14427,"포르투갈":14428,"입자":14429,"담론":14430,"BBC":14431,"디의":14432,"화산":14433,"살균":14434,"나비":14435,"##기금":14436,"충동":14437,"선보일":14438,"아미":14439,"염색":14440,"버터":14441,"##어스":14442,"실려":14443,"창설":14444,"골자":14445,"불공정":14446,"상표":14447,"대검":14448,"겁니까":14449,"노려":14450,"표적":14451,"향이":14452,"입체":14453,"주신":14454,"##iss":14455,"##뜨린":14456,"선이":14457,"학계":14458,"가이드라인":14459,"동대문":14460,"권익":14461,"급하":14462,"이목":14463,"맛보":14464,"양해":14465,"폭염":14466,"니스":14467,"모자라":14468,"##OP":14469,"초상":14470,"절벽":14471,"작곡가":14472,"원수":14473,"라인업":14474,"##소문":14475,"호가":14476,"연초":14477,"디저트":14478,"1945":14479,"마른":14480,"명동":14481,"유보":14482,"접근성":14483,"권총":14484,"선별":14485,"섬세":14486,"##수기":14487,"인문학":14488,"털어놓":14489,"획정":14490,"라틴":14491,"던진":14492,"카지노":14493,"유니폼":14494,"이만":14495,"피난":14496,"국고":14497,"손바닥":14498,"노화":14499,"다운로드":14500,"관통":14501,"##자원":14502,"난리":14503,"딱딱":14504,"재즈":14505,"퇴출":14506,"할리우드":14507,"스티브":14508,"식단":14509,"##여행":14510,"재수":14511,"일으킬":14512,"프로모":14513,"법과":14514,"빅토":14515,"우산":14516,"지체":14517,"원로":14518,"하하":14519,"대담":14520,"해선":14521,"가파":14522,"정했":14523,"##ish":14524,"만료":14525,"홀딩":14526,"어딘가":14527,"가져야":14528,"각성":14529,"창단":14530,"이준":14531,"카카오톡":14532,"##기구":14533,"빠져나가":14534,"중앙지":14535,"딱히":14536,"스테이크":14537,"도마":14538,"빼놓":14539,"방송국":14540,"급감":14541,"##ost":14542,"꾸려":14543,"지켜야":14544,"창업자":14545,"정점":14546,"대입":14547,"회로":14548,"Cl":14549,"뜨거":14550,"부끄러":14551,"특사":14552,"더더":14553,"테니스":14554,"선동":14555,"훗날":14556,"사랑과":14557,"중국어":14558,"변명":14559,"지칭":14560,"수영장":14561,"필연":14562,"##AR":14563,"글쎄":14564,"리치":14565,"SC":14566,"##볶이":14567,"삼진":14568,"어마":14569,"소상":14570,"대권":14571,"동국":14572,"수고":14573,"백지":14574,"유로존":14575,"마인드":14576,"클러":14577,"자책":14578,"플로리다":14579,"그래요":14580,"##ley":14581,"깊숙":14582,"비박":14583,"II":14584,"그제":14585,"지난번":14586,"역동":14587,"가마":14588,"양주":14589,"복도":14590,"영하":14591,"호감":14592,"발상":14593,"세인":14594,"여배우":14595,"새삼":14596,"하청":14597,"쾌적":14598,"신차":14599,"돌연":14600,"동경":14601,"불명":14602,"온통":14603,"간혹":14604,"지면":14605,"헌재":14606,"제철":14607,"현관":14608,"두께":14609,"장단":14610,"인내":14611,"컬렉션":14612,"에볼":14613,"테이프":14614,"가축":14615,"급히":14616,"##신저":14617,"관하":14618,"말레":14619,"의정":14620,"환호":14621,"185":14622,"파우":14623,"인선":14624,"공구":14625,"더위":14626,"##벌이":14627,"마셨":14628,"돋보이":14629,"세인트":14630,"불길":14631,"보스턴":14632,"상봉":14633,"호흡기":14634,"떠들":14635,"동상":14636,"성별":14637,"##OR":14638,"만이":14639,"PS":14640,"시크":14641,"겨울철":14642,"말투":14643,"잇달":14644,"차선":14645,"민영화":14646,"증폭":14647,"자정":14648,"오리지널":14649,"##폴리오":14650,"##퇴근":14651,"거액":14652,"깃발":14653,"극의":14654,"몰락":14655,"헨리":14656,"포트폴리오":14657,"게끔":14658,"전동":14659,"내년도":14660,"언의":14661,"우월":14662,"그쪽":14663,"대공":14664,"##프란":14665,"이시아":14666,"증오":14667,"국외":14668,"만인":14669,"##부인":14670,"기피":14671,"귀엽":14672,"휘발유":14673,"기리":14674,"적성":14675,"##감치":14676,"중얼":14677,"지킬":14678,"당뇨병":14679,"##찌감치":14680,"SD":14681,"아랫":14682,"인삼":14683,"마녀":14684,"보건복지부":14685,"웹툰":14686,"탐방":14687,"강구":14688,"액세":14689,"##pt":14690,"원산":14691,"방역":14692,"블로":14693,"캐피":14694,"유선":14695,"담임":14696,"풍의":14697,"관은":14698,"세계관":14699,"모듈":14700,"칼럼":14701,"핸드폰":14702,"##ps":14703,"##타임":14704,"플랜트":14705,"후진":14706,"습득":14707,"잡힌":14708,"메가":14709,"고령화":14710,"누리꾼":14711,"일당":14712,"실물":14713,"방울":14714,"낮춰":14715,"치료제":14716,"나폴":14717,"크레":14718,"재임":14719,"르노":14720,"찰스":14721,"배심":14722,"연고":14723,"인질":14724,"특강":14725,"역학":14726,"스프링":14727,"전대":14728,"오디션":14729,"##ism":14730,"외화":14731,"볼거리":14732,"올라왔":14733,"지워":14734,"권단":14735,"디즈":14736,"녹화":14737,"##act":14738,"종결":14739,"저주":14740,"광경":14741,"##시피":14742,"남매":14743,"가져왔":14744,"##셀러":14745,"국도":14746,"중학생":14747,"스레":14748,"태세":14749,"프로모션":14750,"서사":14751,"보병":14752,"두부":14753,"음식물":14754,"재편":14755,"입금":14756,"정례":14757,"달걀":14758,"우상":14759,"102":14760,"이민자":14761,"만찬":14762,"안보리":14763,"곡선":14764,"##무라":14765,"LPG":14766,"깔려":14767,"파스타":14768,"포즈":14769,"생략":14770,"볼까":14771,"은데요":14772,"1930":14773,"추종":14774,"그렸":14775,"걸림돌":14776,"익스":14777,"##나타":14778,"마셔":14779,"토니":14780,"해온":14781,"스톤":14782,"후유":14783,"벗어난":14784,"드려":14785,"스와":14786,"불쌍":14787,"그토록":14788,"느리":14789,"이온":14790,"MOU":14791,"줄어드":14792,"티비":14793,"웨어":14794,"떡볶이":14795,"수동":14796,"은의":14797,"해역":14798,"##키퍼":14799,"##뉴스":14800,"김주":14801,"현수":14802,"오른다":14803,"##징어":14804,"자재":14805,"##태프":14806,"예민":14807,"##고사":14808,"대미지":14809,"##그러":14810,"공자":14811,"사우스":14812,"친일":14813,"입히":14814,"도주":14815,"펼쳐진다":14816,"선수단":14817,"설득력":14818,"##디스":14819,"골키퍼":14820,"##인물":14821,"원시":14822,"된장":14823,"어이":14824,"긴밀":14825,"벌레":14826,"이진":14827,"125":14828,"맥스":14829,"고독":14830,"원동":14831,"봉쇄":14832,"내륙":14833,"기량":14834,"빌라":14835,"희귀":14836,"배고":14837,"신약":14838,"Bl":14839,"피크":14840,"##래프트":14841,"독려":14842,"바뀔":14843,"아담":14844,"전례":14845,"홈플러스":14846,"죽인":14847,"##겹살":14848,"공안":14849,"보궐":14850,"은혜":14851,"석사":14852,"공론":14853,"다가왔":14854,"지켰":14855,"지원자":14856,"원숭이":14857,"법상":14858,"의대":14859,"쌓이":14860,"쇠고기":14861,"트랜":14862,"가늠":14863,"이현":14864,"합계":14865,"운의":14866,"아크":14867,"가정의":14868,"도미":14869,"생물학":14870,"삼겹살":14871,"레알":14872,"##박스":14873,"원자재":14874,"연어":14875,"삼성그룹":14876,"마실":14877,"여우":14878,"##조사":14879,"표본":14880,"○○":14881,"공로":14882,"밀도":14883,"진통":14884,"결의안":14885,"사이클":14886,"행렬":14887,"분비":14888,"부친":14889,"빈번":14890,"수원시":14891,"게스트":14892,"방북":14893,"수목":14894,"추후":14895,"##프레":14896,"특례":14897,"길거리":14898,"움직여":14899,"##테이션":14900,"요한":14901,"보습":14902,"##잖아":14903,"동전":14904,"무사히":14905,"내세워":14906,"조현":14907,"박찬":14908,"과징금":14909,"바이올":14910,"죽였":14911,"문화유산":14912,"배구":14913,"벚꽃":14914,"송금":14915,"팽팽":14916,"##코드":14917,"1978":14918,"야심":14919,"시그":14920,"##루미":14921,"쿠키":14922,"선비":14923,"통계청":14924,"농어촌":14925,"꾸미":14926,"곤충":14927,"합치":14928,"출하":14929,"임진":14930,"친한":14931,"ph":14932,"방면":14933,"##라이트":14934,"가치관":14935,"동방":14936,"이시":14937,"통지":14938,"아테":14939,"벗겨":14940,"##ult":14941,"넘어선":14942,"외관":14943,"이뤄지는":14944,"EC":14945,"는구나":14946,"##동자":14947,"사리":14948,"가져올":14949,"지름":14950,"백두":14951,"##답니다":14952,"모방":14953,"아바":14954,"승자":14955,"유대인":14956,"행사장":14957,"가야":14958,"밀착":14959,"웨딩":14960,"공짜":14961,"기점":14962,"오키":14963,"워킹":14964,"경연":14965,"막강":14966,"##ign":14967,"##프란시스코":14968,"훈장":14969,"최경환":14970,"귀환":14971,"고심":14972,"핑계":14973,"도요타":14974,"샌프란시스코":14975,"조조":14976,"교복":14977,"백의":14978,"분자":14979,"##eal":14980,"보류":14981,"오름":14982,"주축":14983,"하지":14984,"모티브":14985,"쿠데타":14986,"평상":14987,"108":14988,"섰다":14989,"전두환":14990,"다녀왔":14991,"김종인":14992,"성주":14993,"원격":14994,"손잡":14995,"흥원":14996,"드린":14997,"절도":14998,"김준":14999,"연산":15000,"비비":15001,"전문의":15002,"십자가":15003,"이세":15004,"규탄":15005,"회의실":15006,"분수":15007,"문법":15008,"여담":15009,"소품":15010,"허물":15011,"불빛":15012,"제자리":15013,"재차":15014,"##월드":15015,"별개":15016,"뭔지":15017,"장래":15018,"CS":15019,"방패":15020,"스리":15021,"사지":15022,"파인":15023,"과열":15024,"##그리":15025,"##쓰기":15026,"코코":15027,"##TS":15028,"칠레":15029,"운동가":15030,"힐러리":15031,"몰두":15032,"선착":15033,"1973":15034,"금전":15035,"STX":15036,"사나이":15037,"불쾌":15038,"승격":15039,"오세":15040,"wh":15041,"유난":15042,"탈북자":15043,"##DA":15044,"고구마":15045,"유쾌":15046,"프랭":15047,"필터":15048,"강호":15049,"##협회":15050,"솜씨":15051,"월간":15052,"##az":15053,"MV":15054,"먹방":15055,"롯데마트":15056,"용납":15057,"신하":15058,"목이":15059,"활짝":15060,"환원":15061,"태권":15062,"##하루":15063,"CG":15064,"하버드":15065,"가진다":15066,"선점":15067,"스가":15068,"구인":15069,"출퇴근":15070,"행장":15071,"던전":15072,"이광":15073,"남양주":15074,"텃밭":15075,"직의":15076,"이불":15077,"집중력":15078,"최우수":15079,"다각":15080,"날카로운":15081,"전일":15082,"결과물":15083,"##기야":15084,"질주":15085,"피스":15086,"기저":15087,"법학":15088,"산지":15089,"관제":15090,"컨디션":15091,"세액":15092,"핀란드":15093,"러닝":15094,"다치":15095,"이뤄지고":15096,"수평":15097,"be":15098,"불평":15099,"국무부":15100,"생활비":15101,"택지":15102,"유교":15103,"##테랑":15104,"이케":15105,"칼리":15106,"유한":15107,"##로리":15108,"두뇌":15109,"포위":15110,"나자":15111,"양호":15112,"##때로":15113,"##추어":15114,"온실가스":15115,"1975":15116,"철학자":15117,"스캔들":15118,"엄중":15119,"우라":15120,"##부분":15121,"정보원":15122,"메신저":15123,"커서":15124,"에프":15125,"들어섰":15126,"사귀":15127,"대두":15128,"##겨운":15129,"학의":15130,"하이닉스":15131,"막혀":15132,"돌이":15133,"경감":15134,"손길":15135,"##ace":15136,"일종":15137,"서초구":15138,"조롱":15139,"초고":15140,"겹치":15141,"##도르":15142,"섹시":15143,"집합":15144,"##테스":15145,"##크리트":15146,"몰입":15147,"지친":15148,"보훈":15149,"국한":15150,"천지":15151,"단골":15152,"호조":15153,"처해":15154,"ed":15155,"대문":15156,"비준":15157,"항복":15158,"넷째":15159,"풍요":15160,"주어":15161,"그레":15162,"정찰":15163,"총체":15164,"판타지":15165,"천주교":15166,"##ach":15167,"실사":15168,"머신":15169,"나뭇":15170,"가져온":15171,"포격":15172,"조문":15173,"저조":15174,"TP":15175,"철의":15176,"동아일보":15177,"동문":15178,"스무":15179,"건가요":15180,"듭니다":15181,"추이":15182,"설이":15183,"출고":15184,"개개인":15185,"상고":15186,"어음":15187,"자민":15188,"지극히":15189,"시켜서":15190,"동조":15191,"찬반":15192,"옥상":15193,"안타까운":15194,"##고속도로":15195,"줄줄이":15196,"찌르":15197,"LI":15198,"돼지고기":15199,"장남":15200,"판교":15201,"퇴임":15202,"##소시엄":15203,"컨소시엄":15204,"붙인":15205,"##버님":15206,"기하":15207,"개량":15208,"담합":15209,"게요":15210,"##퍼드":15211,"가나":15212,"짐승":15213,"횡단":15214,"박재":15215,"김희":15216,"드러낸":15217,"붙였":15218,"##센스":15219,"피지":15220,"##게임":15221,"기념식":15222,"미처":15223,"공산주의":15224,"왕복":15225,"잭슨":15226,"가설":15227,"오징어":15228,"촉발":15229,"무능":15230,"회고":15231,"상단":15232,"수월":15233,"어린아이":15234,"123":15235,"노르웨이":15236,"보이스":15237,"##돌이":15238,"길러":15239,"불의":15240,"훔쳐":15241,"고양시":15242,"##신문":15243,"우체":15244,"셀프":15245,"디아":15246,"싸울":15247,"신재":15248,"##병원":15249,"경희":15250,"표창":15251,"살의":15252,"일찌감치":15253,"FIFA":15254,"산단":15255,"축복":15256,"관악":15257,"올라온":15258,"성찰":15259,"차이점":15260,"한복":15261,"말미":15262,"홀딩스":15263,"카운터":15264,"끓여":15265,"박태":15266,"기미":15267,"생겨나":15268,"주당":15269,"수중":15270,"내전":15271,"강진":15272,"미분양":15273,"사범":15274,"승계":15275,"니깐":15276,"뒤쪽":15277,"성희":15278,"파손":15279,"삽입":15280,"충고":15281,"불렸":15282,"적힌":15283,"으니까요":15284,"폭락":15285,"이렇게":15286,"배기":15287,"구이":15288,"1920":15289,"##로워":15290,"올라갈":15291,"행해":15292,"기용":15293,"소신":15294,"1974":15295,"천국":15296,"구출":15297,"총생":15298,"텍스":15299,"생전":15300,"내다보":15301,"외형":15302,"넓히":15303,"##ons":15304,"패의":15305,"블룸":15306,"##ys":15307,"옥수수":15308,"전승":15309,"홍성":15310,"됐으나":15311,"##ru":15312,"##대교":15313,"HP":15314,"아마추어":15315,"자비":15316,"회색":15317,"시흥":15318,"기꺼":15319,"##거래위":15320,"메카":15321,"손수":15322,"공정거래위":15323,"세븐":15324,"##pl":15325,"스러움":15326,"##균관":15327,"바를":15328,"여겼":15329,"아세":15330,"산업은행":15331,"Mar":15332,"정계":15333,"팀원":15334,"바치":15335,"184":15336,"수백만":15337,"특기":15338,"밤새":15339,"##조선":15340,"##스트리트":15341,"예뻐":15342,"패밀리":15343,"농부":15344,"장로":15345,"이순신":15346,"일화":15347,"##대기":15348,"대명":15349,"ES":15350,"듀얼":15351,"침공":15352,"형평":15353,"##다듬":15354,"노골":15355,"제동":15356,"디즈니":15357,"탐험":15358,"스타일링":15359,"도래":15360,"고위급":15361,"성남시":15362,"그까":15363,"일러스트":15364,"구동":15365,"동창":15366,"궁전":15367,"리콜":15368,"##ere":15369,"##orm":15370,"즈음":15371,"115":15372,"성균관":15373,"공평":15374,"진한":15375,"부속":15376,"원망":15377,"##무실":15378,"밸런스":15379,"소파":15380,"밥상":15381,"##────":15382,"어떡":15383,"멋지":15384,"무수":15385,"이화":15386,"다지":15387,"남미":15388,"450":15389,"하드웨어":15390,"번개":15391,"##끼리":15392,"아이디":15393,"엘리자":15394,"때때로":15395,"레전":15396,"##킨다":15397,"내정자":15398,"달라질":15399,"나간다":15400,"1976":15401,"금고":15402,"미묘":15403,"103":15404,"토마스":15405,"생존자":15406,"숨겨진":15407,"김문":15408,"음란":15409,"##중국":15410,"서원":15411,"대교":15412,"수반":15413,"##천군":15414,"태그":15415,"볼트":15416,"샘플":15417,"해수욕장":15418,"서른":15419,"저절":15420,"올리브":15421,"##출산":15422,"1972":15423,"볼넷":15424,"상급":15425,"미야":15426,"KBO":15427,"상류":15428,"토양":15429,"시내버스":15430,"미끄러":15431,"압수":15432,"잔액":15433,"걸린다":15434,"존스":15435,"##able":15436,"##cc":15437,"##나와":15438,"저절로":15439,"문체":15440,"해병대":15441,"KO":15442,"여정":15443,"콘크리트":15444,"대동":15445,"베드":15446,"고종":15447,"다니엘":15448,"##IT":15449,"불타":15450,"마음껏":15451,"항소심":15452,"다듬":15453,"초코":15454,"보정":15455,"##어마":15456,"남짓":15457,"산학":15458,"##어붙":15459,"어스":15460,"울려":15461,"부평":15462,"집행유예":15463,"보호법":15464,"##벨트":15465,"수거":15466,"친다":15467,"저질렀":15468,"말기":15469,"나르":15470,"냉전":15471,"##높이":15472,"베테랑":15473,"##금자리":15474,"소방서":15475,"왕위":15476,"제작사":15477,"머물러":15478,"##LED":15479,"방사선":15480,"##처분":15481,"미나":15482,"자궁":15483,"보금자리":15484,"상습":15485,"사신":15486,"로선":15487,"집어넣":15488,"봉인":15489,"혼의":15490,"대위":15491,"세율":15492,"월스트리트":15493,"구형":15494,"존재감":15495,"그릴":15496,"입문":15497,"기꺼이":15498,"사관":15499,"불어넣":15500,"가급":15501,"군중":15502,"투구":15503,"원소":15504,"##티스":15505,"요렇":15506,"햇볕":15507,"흔한":15508,"찾아와":15509,"들러":15510,"합당":15511,"포상":15512,"##오카":15513,"면도":15514,"약국":15515,"끌어올리":15516,"111":15517,"고난":15518,"펼칠":15519,"쌓인":15520,"불출":15521,"산재":15522,"거인":15523,"브레":15524,"스물":15525,"##ner":15526,"라구":15527,"적폐":15528,"범의":15529,"##HD":15530,"##도어":15531,"한식":15532,"남측":15533,"##듀서":15534,"적절히":15535,"넘긴":15536,"여력":15537,"##구석":15538,"살아온":15539,"영동":15540,"유관":15541,"##으므로":15542,"프로듀서":15543,"2030":15544,"고로":15545,"마세요":15546,"이쁘":15547,"시드니":15548,"정류장":15549,"도매":15550,"씨도":15551,"학사":15552,"220":15553,"기부금":15554,"슈팅":15555,"산타":15556,"늘릴":15557,"##리안":15558,"행적":15559,"국책":15560,"ad":15561,"공적":15562,"MP":15563,"로그":15564,"명사":15565,"요렇게":15566,"문헌":15567,"화염":15568,"노라":15569,"색이":15570,"가이":15571,"여긴":15572,"최후":15573,"각광":15574,"하와이":15575,"앞뒤":15576,"##베트":15577,"트레이드":15578,"##럴드":15579,"등장인물":15580,"로움":15581,"기와":15582,"꼬마":15583,"사죄":15584,"설화":15585,"조형":15586,"비어":15587,"문예":15588,"유난히":15589,"아부":15590,"탈리":15591,"##고래":15592,"고액":15593,"재빨리":15594,"복권":15595,"드라이버":15596,"신지":15597,"두지":15598,"중위":15599,"파스":15600,"헤지":15601,"할까요":15602,"결말":15603,"국기":15604,"계통":15605,"도피":15606,"징후":15607,"가디":15608,"송이":15609,"울릉":15610,"히틀러":15611,"go":15612,"주스":15613,"미얀마":15614,"김영삼":15615,"샴푸":15616,"##ON":15617,"기종":15618,"결집":15619,"카스":15620,"##권력":15621,"박진":15622,"##소년":15623,"##지르":15624,"경쟁사":15625,"240":15626,"명명":15627,"환급":15628,"##ier":15629,"섞여":15630,"미팅":15631,"사나":15632,"체코":15633,"대표단":15634,"차종":15635,"호전":15636,"외계":15637,"red":15638,"가꾸":15639,"넥슨":15640,"바나나":15641,"##ton":15642,"수첩":15643,"SA":15644,"주입":15645,"John":15646,"미인":15647,"##나들":15648,"후유증":15649,"##성이":15650,"로스쿨":15651,"박용":15652,"food":15653,"쓰인다":15654,"컨텐츠":15655,"##ivers":15656,"Ph":15657,"잠자리":15658,"의료진":15659,"시동":15660,"질투":15661,"사생활":15662,"시멘트":15663,"공대":15664,"실세":15665,"재테크":15666,"민족주의":15667,"일리":15668,"벗어날":15669,"아이콘":15670,"지지층":15671,"##라이나":15672,"가급적":15673,"잊어버":15674,"##바겐":15675,"미성년":15676,"치마":15677,"사회단체":15678,"국영":15679,"절제":15680,"상반":15681,"무제한":15682,"무자":15683,"나눴":15684,"섞인":15685,"##tern":15686,"관습":15687,"총생산":15688,"빈도":15689,"겹쳐":15690,"블리":15691,"교향":15692,"식별":15693,"유공":15694,"저마":15695,"동등":15696,"별의":15697,"워커":15698,"시력":15699,"장애물":15700,"야스":15701,"스피커":15702,"폐업":15703,"##rou":15704,"환불":15705,"유기농":15706,"진해":15707,"침착":15708,"##벤션":15709,"##벌레":15710,"탄도":15711,"##현실":15712,"##old":15713,"##평균":15714,"소방관":15715,"리처":15716,"정반":15717,"벅스":15718,"열흘":15719,"겸손":15720,"망원":15721,"##런트":15722,"달라진다":15723,"본점":15724,"안과":15725,"이룬":15726,"변환":15727,"악영향":15728,"주지사":15729,"인출":15730,"접대":15731,"어마어마":15732,"##RI":15733,"사육":15734,"직구":15735,"직결":15736,"이루어진다":15737,"칼로리":15738,"평의":15739,"메트로":15740,"더더욱":15741,"독창":15742,"손흥":15743,"여도":15744,"묻혀":15745,"##버려":15746,"변동성":15747,"타수":15748,"메탈":15749,"애요":15750,"##전력":15751,"르네":15752,"##습기":15753,"폭스바겐":15754,"1977":15755,"##ash":15756,"청렴":15757,"서열":15758,"주춤":15759,"치른":15760,"특별시":15761,"는군":15762,"##하라":15763,"리오":15764,"##네스코":15765,"손흥민":15766,"납세":15767,"##rom":15768,"속옷":15769,"아쿠":15770,"거시":15771,"##발전":15772,"모였":15773,"배워":15774,"견딜":15775,"반갑":15776,"반문":15777,"재앙":15778,"호박":15779,"플래시":15780,"농축":15781,"사외":15782,"퍼시":15783,"메타":15784,"레전드":15785,"효능":15786,"it":15787,"경인":15788,"컨벤션":15789,"##티지":15790,"공예":15791,"받아들였":15792,"타가":15793,"##사람":15794,"색다른":15795,"종말":15796,"간과":15797,"욕의":15798,"접한":15799,"성령":15800,"제작자":15801,"물리학":15802,"머무르":15803,"교직원":15804,"수량":15805,"대국민":15806,"소서":15807,"NP":15808,"도가":15809,"그런가":15810,"력사":15811,"리터":15812,"Wh":15813,"구슬":15814,"철폐":15815,"승차":15816,"##라미":15817,"정정":15818,"넓혀":15819,"밝힐":15820,"##IST":15821,"외과":15822,"시설물":15823,"유언":15824,"후계자":15825,"클렌":15826,"##서스":15827,"동요":15828,"사사":15829,"##글라스":15830,"표절":15831,"사촌":15832,"회식":15833,"눈부":15834,"성희롱":15835,"공청":15836,"##르드":15837,"##퍼니":15838,"마그":15839,"##이팅":15840,"타이거":15841,"갈색":15842,"사옥":15843,"스윙":15844,"임하":15845,"##마리":15846,"##포터":15847,"큰일":15848,"##연합":15849,"법관":15850,"비빔":15851,"왼손":15852,"채팅":15853,"동아시아":15854,"손질":15855,"폭포":15856,"한라":15857,"국지":15858,"원만":15859,"이창":15860,"전단":15861,"진작":15862,"열망":15863,"바리":15864,"브렉":15865,"쓸모":15866,"감행":15867,"환수":15868,"살아나":15869,"알라":15870,"유네스코":15871,"일까요":15872,"굴러":15873,"##arl":15874,"브래":15875,"안전성":15876,"교전":15877,"정장":15878,"##ite":15879,"수와":15880,"체납":15881,"메이커":15882,"##위치":15883,"cl":15884,"DS":15885,"야드":15886,"끌어내":15887,"귀중":15888,"동점":15889,"박의":15890,"슬라이":15891,"이용객":15892,"발이":15893,"##백과":15894,"##스틱":15895,"하필":15896,"능동":15897,"분화":15898,"코스트":15899,"김윤":15900,"증액":15901,"106":15902,"비아":15903,"##모습":15904,"##태우":15905,"오산":15906,"헤르":15907,"기업가":15908,"김연아":15909,"줄였":15910,"매직":15911,"ms":15912,"지휘관":15913,"##비치":15914,"노원":15915,"지질":15916,"##che":15917,"##화물":15918,"국제공항":15919,"콜롬":15920,"##마켓":15921,"빼돌":15922,"어때":15923,"미달":15924,"친근":15925,"미주":15926,"따돌":15927,"주교":15928,"방사능":15929,"##디움":15930,"망가":15931,"실종자":15932,"나뉜":15933,"테크노":15934,"시전":15935,"신청서":15936,"세입자":15937,"파급":15938,"잇따르":15939,"남산":15940,"대의원":15941,"페리":15942,"미생":15943,"악몽":15944,"각도":15945,"헝가리":15946,"세이브":15947,"으세요":15948,"##라비아":15949,"경품":15950,"구조물":15951,"았었":15952,"가면":15953,"하도급":15954,"안티":15955,"##소통":15956,"기념관":15957,"동반자":15958,"가든":15959,"본관":15960,"사주":15961,"반납":15962,"모른":15963,"전념":15964,"생명체":15965,"관련자":15966,"설마":15967,"거슬러":15968,"학점":15969,"해적":15970,"##orld":15971,"내재":15972,"##줄기":15973,"앙의":15974,"인양":15975,"표방":15976,"바짝":15977,"공무":15978,"이색":15979,"느껴진다":15980,"수사관":15981,"용사":15982,"걸어서":15983,"뒤지":15984,"음주운전":15985,"아주머니":15986,"신뢰도":15987,"김창":15988,"카트":15989,"돌려주":15990,"by":15991,"마운드":15992,"불펜":15993,"##te":15994,"탈모":15995,"복지부":15996,"여행자":15997,"어미":15998,"An":15999,"신다":16000,"애완":16001,"##상부":16002,"정형":16003,"포수":16004,"수필":16005,"나카":16006,"스폰":16007,"inst":16008,"요령":16009,"약탈":16010,"영수":16011,"나주":16012,"합격자":16013,"휴직":16014,"이산화":16015,"##일드":16016,"이산가족":16017,"후쿠시마":16018,"고비":16019,"악수":16020,"내려갔":16021,"소고기":16022,"궁금증":16023,"##BA":16024,"풍기":16025,"맞물려":16026,"오지":16027,"저출산":16028,"컴퍼니":16029,"파이프":16030,"강대":16031,"고아":16032,"왔으며":16033,"##학규":16034,"지기":16035,"1968":16036,"추궁":16037,"미디":16038,"오너":16039,"공과":16040,"##경북":16041,"은행장":16042,"유상":16043,"호위":16044,"연평도":16045,"비웃":16046,"타락":16047,"1971":16048,"노년":16049,"목적지":16050,"104":16051,"소명":16052,"테라":16053,"의사소통":16054,"자치구":16055,"as":16056,"대요":16057,"글쓰기":16058,"공모전":16059,"NS":16060,"멀쩡":16061,"침실":16062,"호스":16063,"특보":16064,"원주민":16065,"##허가":16066,"확진":16067,"임박":16068,"튀김":16069,"까진":16070,"예년":16071,"반감":16072,"입각":16073,"통찰":16074,"절정":16075,"묵묵":16076,"개원":16077,"금세":16078,"기로":16079,"애널":16080,"심층":16081,"쓸데":16082,"건설업":16083,"기밀":16084,"맞붙":16085,"##are":16086,"챙긴":16087,"지리산":16088,"감과":16089,"전시관":16090,"문항":16091,"웨일":16092,"바닷가":16093,"도어":16094,"183":16095,"늘렸":16096,"공격수":16097,"비서실":16098,"대책위":16099,"익명":16100,"인맥":16101,"당대":16102,"쫓아":16103,"중력":16104,"애써":16105,"아버님":16106,"샤오":16107,"슬로건":16108,"친분":16109,"여행사":16110,"코디":16111,"##십자":16112,"갱신":16113,"열람":16114,"##가와":16115,"액체":16116,"신작":16117,"##동원":16118,"유익":16119,"화석":16120,"구실":16121,"##뉴얼":16122,"##고루":16123,"무서워":16124,"주식회사":16125,"번쩍":16126,"레몬":16127,"나옵니다":16128,"109":16129,"장터":16130,"저택":16131,"고마워":16132,"미학":16133,"회복세":16134,"대타":16135,"시뮬":16136,"일생":16137,"주니어":16138,"간첩":16139,"란다":16140,"무궁":16141,"179":16142,"거래일":16143,"동반성":16144,"분주":16145,"##내기":16146,"맥도":16147,"변한":16148,"##하이":16149,"무심":16150,"신문사":16151,"잔류":16152,"회차":16153,"조별":16154,"휴전":16155,"리처드":16156,"포천":16157,"키울":16158,"에볼라":16159,"페널":16160,"자취":16161,"교리":16162,"잠자":16163,"만두":16164,"주저앉":16165,"카타르":16166,"다카":16167,"관이":16168,"차입":16169,"중상":16170,"전처":16171,"음의":16172,"전성기":16173,"그라운드":16174,"풍선":16175,"죽일":16176,"##ile":16177,"순조":16178,"##운용":16179,"개미":16180,"No":16181,"EBS":16182,"가처분":16183,"유무":16184,"시공사":16185,"유서":16186,"우익":16187,"뉴타운":16188,"대성":16189,"휘말":16190,"아인":16191,"버지":16192,"am":16193,"국사":16194,"##엑스":16195,"##ics":16196,"공소":16197,"김명":16198,"보태":16199,"임종":16200,"##사태":16201,"쉬워":16202,"##러져":16203,"법규":16204,"접전":16205,"열광":16206,"천정":16207,"소행":16208,"광대":16209,"소박":16210,"AF":16211,"내보내":16212,"한옥":16213,"원본":16214,"자수":16215,"속하":16216,"그리워":16217,"청계":16218,"##법인":16219,"효성":16220,"##iel":16221,"파기":16222,"어업":16223,"사업가":16224,"사표":16225,"##투리":16226,"조그만":16227,"지중":16228,"오마이":16229,"증설":16230,"대본":16231,"설교":16232,"끼워":16233,"시당":16234,"추리":16235,"##ide":16236,"바늘":16237,"원안":16238,"들여다":16239,"Pl":16240,"조수":16241,"대마":16242,"107":16243,"##뜨려":16244,"로라":16245,"사치":16246,"무방":16247,"양대":16248,"조이":16249,"##GA":16250,"##라노":16251,"말자":16252,"한국사":16253,"단연":16254,"스며":16255,"강국":16256,"학생과":16257,"기절":16258,"콜로":16259,"영재":16260,"맛스타":16261,"납입":16262,"여느":16263,"맹세":16264,"멸종":16265,"채의":16266,"관문":16267,"미스트":16268,"쓰러지":16269,"##다나":16270,"소가":16271,"비관":16272,"할지라도":16273,"##퀘어":16274,"##총액":16275,"이즈":16276,"매사":16277,"##주택":16278,"인플레이션":16279,"키웠":16280,"장자":16281,"휘두르":16282,"단풍":16283,"공이":16284,"모조리":16285,"##ove":16286,"이리저리":16287,"멜로":16288,"시가총액":16289,"Ex":16290,"워크숍":16291,"육의":16292,"위키백과":16293,"레지":16294,"어째서":16295,"러블":16296,"캐롤":16297,"속한다":16298,"##orea":16299,"상이":16300,"수산물":16301,"후반기":16302,"##박이":16303,"대령":16304,"조업":16305,"##ction":16306,"동사":16307,"호재":16308,"배심원":16309,"적금":16310,"손꼽":16311,"돌진":16312,"##카와":16313,"난의":16314,"웃기":16315,"희미":16316,"한상":16317,"사학":16318,"##들인":16319,"냉각":16320,"이별":16321,"버디":16322,"패권":16323,"부의장":16324,"마진":16325,"골고루":16326,"쿠션":16327,"성전":16328,"원서":16329,"##수리":16330,"##보기":16331,"내세웠":16332,"결실":16333,"균열":16334,"경영학":16335,"지회":16336,"강물":16337,"캄보":16338,"필라":16339,"정선":16340,"수납":16341,"벌일":16342,"레시피":16343,"재래":16344,"기술자":16345,"이따":16346,"PR":16347,"대림":16348,"실어":16349,"마차":16350,"꼼수":16351,"했을까":16352,"멋있":16353,"잊혀":16354,"중장":16355,"엄지":16356,"이재용":16357,"프렌":16358,"##사관":16359,"손학규":16360,"패스트":16361,"##AC":16362,"me":16363,"유병":16364,"떠오른":16365,"본성":16366,"인위":16367,"출혈":16368,"이천":16369,"취직":16370,"##rist":16371,"태극기":16372,"135":16373,"포크":16374,"##파리":16375,"떨어뜨리":16376,"유능":16377,"지에":16378,"처치":16379,"아웃도어":16380,"어치":16381,"막말":16382,"모션":16383,"##ina":16384,"얼어붙":16385,"##orn":16386,"여행객":16387,"코끼리":16388,"공신":16389,"당근":16390,"부지런":16391,"청중":16392,"해준":16393,"원회":16394,"kt":16395,"##기지":16396,"##무게":16397,"또래":16398,"##턴트":16399,"소총":16400,"with":16401,"검열":16402,"예매":16403,"181":16404,"일조":16405,"적다":16406,"다중":16407,"용감":16408,"스페이스":16409,"날렸":16410,"부통령":16411,"요동":16412,"최장":16413,"로맨스":16414,"몸무게":16415,"해커":16416,"강북":16417,"싸웠":16418,"다스리":16419,"tr":16420,"결선":16421,"탐지":16422,"대놓":16423,"수요자":16424,"명상":16425,"수출입":16426,"벼슬":16427,"세션":16428,"흘렀":16429,"단기간":16430,"산이":16431,"통역":16432,"녹차":16433,"대용":16434,"##렁이":16435,"강점기":16436,"김유":16437,"1969":16438,"##찌개":16439,"질렀":16440,"김천":16441,"아이언":16442,"##말라":16443,"직위":16444,"강타":16445,"내쉬":16446,"박지성":16447,"##꿈치":16448,"##재단":16449,"문경":16450,"대도":16451,"승률":16452,"심야":16453,"피력":16454,"샌드위치":16455,"설레":16456,"어휘":16457,"발부":16458,"슬프":16459,"가미":16460,"일컫":16461,"토막":16462,"허벅":16463,"AD":16464,"세탁기":16465,"특구":16466,"민선":16467,"##ance":16468,"매뉴얼":16469,"허무":16470,"해냈":16471,"비참":16472,"모던":16473,"묶여":16474,"풍속":16475,"급한":16476,"지주회사":16477,"Sch":16478,"관내":16479,"산맥":16480,"JT":16481,"과언":16482,"터졌":16483,"민자":16484,"##aver":16485,"십니다":16486,"놀이터":16487,"소동":16488,"178":16489,"셰프":16490,"에디":16491,"이룩":16492,"캄보디아":16493,"스태프":16494,"##⠀⠀":16495,"121":16496,"경지":16497,"규격":16498,"블라디":16499,"약관":16500,"이한":16501,"##제철":16502,"175":16503,"159":16504,"남아공":16505,"풍자":16506,"북극":16507,"##내셔널":16508,"간다는":16509,"남해":16510,"급진":16511,"수염":16512,"미혼":16513,"부결":16514,"소진":16515,"타고":16516,"경신":16517,"구금":16518,"세자":16519,"알루미":16520,"와이파이":16521,"인터내셔널":16522,"역세":16523,"총무":16524,"패러디":16525,"맨날":16526,"구독":16527,"내뱉":16528,"킬로미터":16529,"시시":16530,"번영":16531,"무성":16532,"일회":16533,"회사채":16534,"방탄":16535,"##슈타인":16536,"##보험":16537,"늘어":16538,"이동하":16539,"라이언":16540,"선호도":16541,"거미":16542,"여가":16543,"괴롭히":16544,"##oo":16545,"곤두":16546,"혜의":16547,"드러난다":16548,"주상":16549,"공청회":16550,"귀한":16551,"삼촌":16552,"달달":16553,"돌풍":16554,"##클럽":16555,"##페이":16556,"동물원":16557,"습지":16558,"발족":16559,"명도":16560,"판도":16561,"##모니":16562,"스티커":16563,"파이어":16564,"퀴즈":16565,"벽돌":16566,"손톱":16567,"수없":16568,"트러":16569,"부담금":16570,"저술":16571,"정우":16572,"강성":16573,"드레":16574,"태워":16575,"밝혀진":16576,"음악회":16577,"쪼개":16578,"아리랑":16579,"자산운용":16580,"따른다":16581,"당정":16582,"한껏":16583,"항쟁":16584,"조경":16585,"함량":16586,"방화":16587,"보낸다":16588,"피드":16589,"다뤄":16590,"쇼트":16591,"세단":16592,"NY":16593,"행방":16594,"셀카":16595,"초창":16596,"고찰":16597,"취재진":16598,"공표":16599,"터진":16600,"패드":16601,"상선":16602,"추신":16603,"리베":16604,"스타디움":16605,"산행":16606,"다저스":16607,"퍼시픽":16608,"##김없이":16609,"부드러":16610,"적잖":16611,"건담":16612,"라마":16613,"는커녕":16614,"시련":16615,"필사":16616,"거둘":16617,"절박":16618,"오디오":16619,"##브라":16620,"일어서":16621,"명인":16622,"접어":16623,"당도":16624,"상거래":16625,"외래":16626,"Ad":16627,"◀▶":16628,"여럿":16629,"조속히":16630,"화자":16631,"##TC":16632,"소울":16633,"1948":16634,"액세서리":16635,"제트":16636,"##훼손":16637,"현수막":16638,"우량":16639,"##att":16640,"뒤덮":16641,"##슬리":16642,"장시간":16643,"중원":16644,"보상금":16645,"블룸버그":16646,"집니다":16647,"박모":16648,"##나드":16649,"거창":16650,"빨래":16651,"특급":16652,"알레르기":16653,"##페이스":16654,"현존":16655,"##ky":16656,"국회법":16657,"트레이닝":16658,"##기름":16659,"카리스":16660,"퇴장":16661,"응하":16662,"모닝":16663,"##베이스":16664,"김인":16665,"눈높이":16666,"지로":16667,"재판관":16668,"인지라":16669,"떨리":16670,"어가":16671,"다녀온":16672,"인플":16673,"코르":16674,"명심":16675,"독성":16676,"서한":16677,"둥지":16678,"원심":16679,"조준":16680,"번갈":16681,"도망치":16682,"울타리":16683,"윤석":16684,"극우":16685,"급기야":16686,"알루미늄":16687,"ID":16688,"산물":16689,"128":16690,"1963":16691,"윈도우":16692,"무안":16693,"증자":16694,"파이낸":16695,"조계":16696,"락의":16697,"1965":16698,"TH":16699,"전향":16700,"명예훼손":16701,"Sc":16702,"실존":16703,"환기":16704,"로워":16705,"마리가":16706,"##릴라":16707,"심포":16708,"1800":16709,"##yst":16710,"News":16711,"풍력":16712,"덩치":16713,"랭크":16714,"경제성장":16715,"연준":16716,"중고차":16717,"카레":16718,"ㆍ중":16719,"AM":16720,"CF":16721,"흉내":16722,"바에":16723,"스케줄":16724,"아무렇":16725,"목동":16726,"파울":16727,"타깃":16728,"##ott":16729,"터뜨렸":16730,"격투":16731,"##팩트":16732,"자니":16733,"원동력":16734,"##ax":16735,"푸짐":16736,"무분":16737,"##ae":16738,"야구장":16739,"둘레":16740,"잡혔":16741,"내버려":16742,"신전":16743,"세심":16744,"숭배":16745,"노동력":16746,"면역력":16747,"따랐":16748,"당권":16749,"장편":16750,"외교관":16751,"아토":16752,"기업체":16753,"충주":16754,"노사정":16755,"눈썹":16756,"요거":16757,"인들":16758,"눈동자":16759,"치렀":16760,"미시":16761,"안면":16762,"##und":16763,"장담":16764,"로빈":16765,"##무니":16766,"수없이":16767,"어야지":16768,"PB":16769,"재심":16770,"다녀오":16771,"예보":16772,"데려가":16773,"조망":16774,"장부":16775,"함양":16776,"공수":16777,"타선":16778,"심문":16779,"##ㅋㅋ":16780,"차명":16781,"##주얼":16782,"182":16783,"유희":16784,"거센":16785,"남다른":16786,"선체":16787,"얼룩":16788,"서귀":16789,"컴백":16790,"벌어질":16791,"슬퍼":16792,"김밥":16793,"##올랐":16794,"농지":16795,"내포":16796,"병기":16797,"애기":16798,"배급":16799,"생체":16800,"느니":16801,"방대":16802,"만장":16803,"시연":16804,"230":16805,"일찍이":16806,"하차":16807,"한국전력":16808,"슈퍼마켓":16809,"비방":16810,"일인":16811,"모발":16812,"북방":16813,"허공":16814,"##ban":16815,"##미르":16816,"실재":16817,"침수":16818,"가습기":16819,"도당":16820,"판문":16821,"농약":16822,"심플":16823,"은근히":16824,"##구장":16825,"기력":16826,"1967":16827,"유재":16828,"추기":16829,"페널티":16830,"브로드":16831,"터뜨리":16832,"밀가루":16833,"회의소":16834,"본토":16835,"저리":16836,"김두":16837,"야말로":16838,"축의":16839,"배임":16840,"은은":16841,"공휴":16842,"You":16843,"영화관":16844,"순례":16845,"아모":16846,"비주얼":16847,"농수":16848,"##가치":16849,"편찬":16850,"##르타":16851,"흡입":16852,"##마을":16853,"훔친":16854,"유가증권":16855,"##공단":16856,"살아갈":16857,"대리인":16858,"##OD":16859,"기고":16860,"##BI":16861,"##지도":16862,"145":16863,"바이어":16864,"선교사":16865,"모로":16866,"113":16867,"##어야":16868,"영유":16869,"틀리":16870,"소리쳤":16871,"##순환":16872,"플랫폼":16873,"구가":16874,"오른손":16875,"클러스터":16876,"서산":16877,"122":16878,"견이":16879,"ml":16880,"호칭":16881,"오찬":16882,"미쓰":16883,"졌으며":16884,"항로":16885,"수료":16886,"친숙":16887,"##여겨":16888,"관철":16889,"긴축":16890,"##ink":16891,"캐주얼":16892,"박인":16893,"오라":16894,"지휘자":16895,"각인":16896,"운수":16897,"중남":16898,"사각지대":16899,"찬양":16900,"남북한":16901,"에드워드":16902,"퀄리티":16903,"도난":16904,"로열":16905,"식감":16906,"한발":16907,"##anc":16908,"방어력":16909,"순차":16910,"우체국":16911,"약품":16912,"광물":16913,"어둡":16914,"뻔했":16915,"가평":16916,"조영":16917,"아프간":16918,"스코어":16919,"자이언":16920,"조처":16921,"더운":16922,"화랑":16923,"##ead":16924,"여태":16925,"##int":16926,"##날레":16927,"몰렸":16928,"양평":16929,"특색":16930,"##플렉스":16931,"흘러가":16932,"##갈비":16933,"숙련":16934,"백작":16935,"총알":16936,"판례":16937,"이놈":16938,"제대":16939,"##저것":16940,"흡사":16941,"이것저것":16942,"네오":16943,"의아":16944,"꺼리":16945,"보건소":16946,"베스트셀러":16947,"##쿠라":16948,"멍청":16949,"##ox":16950,"##ree":16951,"거리의":16952,"후원금":16953,"더듬":16954,"순회":16955,"서두르":16956,"뜻밖":16957,"pr":16958,"눈여겨":16959,"박해":16960,"미라":16961,"송전":16962,"승려":16963,"##경제":16964,"하마":16965,"일축":16966,"잣대":16967,"통신망":16968,"책임감":16969,"맛과":16970,"케리":16971,"쓰였":16972,"오프닝":16973,"띈다":16974,"캐리":16975,"##란트":16976,"##든지":16977,"합산":16978,"포부":16979,"산불":16980,"##ous":16981,"나흘":16982,"루시":16983,"반론":16984,"의구":16985,"##엘라":16986,"고부":16987,"조개":16988,"드럼":16989,"먹여":16990,"##스틴":16991,"##HO":16992,"송파구":16993,"노부":16994,"생명력":16995,"품종":16996,"곡물":16997,"힙합":16998,"완성도":16999,"뻔한":17000,"지역민":17001,"엘리자베스":17002,"해답":17003,"정가":17004,"목재":17005,"##보이":17006,"급속히":17007,"비주류":17008,"세라":17009,"세례":17010,"성급":17011,"지음":17012,"공보":17013,"남이":17014,"동거":17015,"기침":17016,"버릇":17017,"##row":17018,"강당":17019,"챌린":17020,"부끄럽":17021,"평면":17022,"둔다":17023,"겠죠":17024,"우승자":17025,"하루하루":17026,"헤매":17027,"속초":17028,"일한":17029,"축사":17030,"직책":17031,"거쳐야":17032,"극도":17033,"비와":17034,"미수":17035,"다정":17036,"이이":17037,"세분":17038,"##방송":17039,"##itt":17040,"불사":17041,"DB":17042,"원도":17043,"이방":17044,"친밀":17045,"의거":17046,"효소":17047,"등극":17048,"레일":17049,"토트":17050,"부흥":17051,"서귀포":17052,"질러":17053,"소독":17054,"쓰인":17055,"유모":17056,"남서":17057,"명함":17058,"155":17059,"##ai":17060,"스트라이커":17061,"항암":17062,"박병":17063,"떠돌":17064,"잡스":17065,"동탄":17066,"로우":17067,"미워":17068,"포용":17069,"진열":17070,"동인":17071,"테일":17072,"무고":17073,"저해":17074,"제국주의":17075,"업과":17076,"경직":17077,"발렌":17078,"기일":17079,"##메이":17080,"쓰러져":17081,"참치":17082,"코카":17083,"1962":17084,"울트라":17085,"꺼냈":17086,"##망이":17087,"바꿔야":17088,"악취":17089,"스텔":17090,"올린다":17091,"##애나":17092,"냐며":17093,"흘렸":17094,"기수":17095,"번식":17096,"165":17097,"구비":17098,"허벅지":17099,"고안":17100,"광의":17101,"벽화":17102,"정제":17103,"품은":17104,"토종":17105,"##ual":17106,"EX":17107,"애널리스트":17108,"의왕":17109,"후자":17110,"1300":17111,"커지":17112,"공휴일":17113,"견고":17114,"승소":17115,"중증":17116,"##ake":17117,"나리":17118,"스퀘어":17119,"거침":17120,"당은":17121,"고분":17122,"타석":17123,"북서":17124,"국과":17125,"화사":17126,"##결승":17127,"ETF":17128,"UA":17129,"폭우":17130,"##ime":17131,"펼친":17132,"정이":17133,"##국적":17134,"남경":17135,"곧장":17136,"어머님":17137,"루비":17138,"더욱더":17139,"팽창":17140,"핀테크":17141,"불거진":17142,"루스":17143,"행인":17144,"##누스":17145,"타지":17146,"##첨단":17147,"마우스":17148,"어긋나":17149,"올라간":17150,"LS":17151,"볼륨":17152,"돈의":17153,"개신":17154,"##enn":17155,"라던":17156,"은밀":17157,"무분별":17158,"리우":17159,"성모":17160,"입이":17161,"의구심":17162,"보답":17163,"##지만":17164,"##금리":17165,"절단":17166,"환산":17167,"연중":17168,"아우디":17169,"유정":17170,"유류":17171,"토스":17172,"발발":17173,"교토":17174,"비법":17175,"하단":17176,"작사":17177,"Tr":17178,"1600":17179,"트랜스":17180,"바비":17181,"##파이어":17182,"암흑":17183,"윤곽":17184,"부원":17185,"틀린":17186,"con":17187,"##기사":17188,"성원":17189,"다자":17190,"깨지":17191,"본명":17192,"버드":17193,"도망가":17194,"문신":17195,"시국":17196,"뮌헨":17197,"페인트":17198,"토너먼트":17199,"서문":17200,"키운":17201,"##크림":17202,"OLED":17203,"루수":17204,"첨부":17205,"154":17206,"끊임없":17207,"신영":17208,"다물":17209,"최재":17210,"불상":17211,"큐브":17212,"아테네":17213,"DC":17214,"158":17215,"제인":17216,"틈새":17217,"속해":17218,"듬뿍":17219,"최상위":17220,"다방":17221,"함수":17222,"치료법":17223,"서해안":17224,"발자국":17225,"##하마":17226,"un":17227,"요정":17228,"직관":17229,"오키나와":17230,"격파":17231,"##레일":17232,"지뢰":17233,"최첨단":17234,"117":17235,"KCC":17236,"##sp":17237,"스트리":17238,"스트리트":17239,"응모":17240,"##승부":17241,"똑바로":17242,"##훈련":17243,"마리오":17244,"118":17245,"차이나":17246,"공관":17247,"김혜":17248,"곡이":17249,"카리스마":17250,"초창기":17251,"늦추":17252,"흘려":17253,"태안":17254,"##수원":17255,"자랐":17256,"루타":17257,"보호자":17258,"취업자":17259,"판문점":17260,"빅토리아":17261,"엄정":17262,"브라우":17263,"서남":17264,"이룬다":17265,"연주자":17266,"서재":17267,"파르":17268,"주십시오":17269,"퇴원":17270,"쇼크":17271,"세울":17272,"##젤레스":17273,"왕비":17274,"팔렸":17275,"##드름":17276,"누락":17277,"화법":17278,"바스":17279,"정령":17280,"들어와서":17281,"JTBC":17282,"우뚝":17283,"추대":17284,"하룻":17285,"사라진다":17286,"원거리":17287,"경비원":17288,"도울":17289,"까다로운":17290,"스위치":17291,"##시스트":17292,"이윽":17293,"사시":17294,"택하":17295,"알아차":17296,"##rig":17297,"만세":17298,"견뎌":17299,"##ech":17300,"심도":17301,"호환":17302,"부두":17303,"##부진":17304,"빨간색":17305,"황교":17306,"서비스업":17307,"심혈":17308,"오리온":17309,"바그":17310,"불려":17311,"엿볼":17312,"초밥":17313,"케네":17314,"수정안":17315,"실증":17316,"다쳤":17317,"외환은행":17318,"제왕":17319,"촌의":17320,"MVP":17321,"두드러":17322,"카테":17323,"연합군":17324,"파행":17325,"움직였":17326,"휴게소":17327,"##같이":17328,"210":17329,"파이터":17330,"쏟아졌":17331,"차츰":17332,"1940":17333,"기류":17334,"줄지":17335,"이나마":17336,"흔하":17337,"여타":17338,"반경":17339,"대구경북":17340,"Con":17341,"시킴":17342,"노란색":17343,"윌리엄스":17344,"가명":17345,"찬사":17346,"한수":17347,"##아나":17348,"로이터":17349,"리본":17350,"플레":17351,"이긴":17352,"낯설":17353,"도자기":17354,"이건희":17355,"체온":17356,"알맞":17357,"소나":17358,"척도":17359,"살포":17360,"##통일":17361,"나미":17362,"이윽고":17363,"청량":17364,"##바꿈":17365,"##ID":17366,"스폰서":17367,"유키":17368,"종식":17369,"부인의":17370,"경이":17371,"##ition":17372,"일간지":17373,"유공자":17374,"1964":17375,"연못":17376,"하신":17377,"잡아먹":17378,"뿌듯":17379,"시조":17380,"시킨다는":17381,"돌봄":17382,"안토":17383,"리바":17384,"방이":17385,"##금속":17386,"대란":17387,"즉석":17388,"##곡동":17389,"감고":17390,"반값":17391,"올라와":17392,"증서":17393,"감도":17394,"베일":17395,"었었":17396,"sc":17397,"인데다":17398,"승마":17399,"제갈":17400,"늘어놓":17401,"##pg":17402,"성지":17403,"공용":17404,"사당":17405,"평안":17406,"데가":17407,"장년":17408,"나날":17409,"접할":17410,"티어":17411,"##클린":17412,"발리":17413,"태백":17414,"이견":17415,"경성":17416,"부응":17417,"도라":17418,"활동가":17419,"적법":17420,"##ome":17421,"통째":17422,"1900":17423,"pl":17424,"쓸쓸":17425,"깨끗이":17426,"막바지":17427,"테마파크":17428,"서대문":17429,"양당":17430,"마오":17431,"나스":17432,"소변":17433,"초안":17434,"##노이":17435,"750":17436,"지으며":17437,"더군다나":17438,"기질":17439,"정경":17440,"##무진":17441,"주범":17442,"WS":17443,"달빛":17444,"at":17445,"하계":17446,"카톡":17447,"위태":17448,"유흥":17449,"##금융":17450,"사살":17451,"약혼":17452,"MD":17453,"naver":17454,"드립":17455,"두드리":17456,"공명":17457,"매콤":17458,"투신":17459,"버블":17460,"브로커":17461,"무너져":17462,"흩어져":17463,"교차로":17464,"황사":17465,"무거":17466,"##에이":17467,"난방":17468,"상회":17469,"숙이":17470,"##IN":17471,"바빠":17472,"NLL":17473,"해독":17474,"아름다움을":17475,"느린":17476,"스틱":17477,"후방":17478,"김원":17479,"116":17480,"##예술":17481,"##이나":17482,"게시물":17483,"색채":17484,"사탕":17485,"중추":17486,"내려와":17487,"안락":17488,"불출마":17489,"##프스":17490,"개구리":17491,"##ale":17492,"아메리":17493,"사채":17494,"내성":17495,"담뱃":17496,"들으":17497,"##체어":17498,"##네마":17499,"수표":17500,"부상자":17501,"도보":17502,"국유":17503,"김관":17504,"요코":17505,"반기문":17506,"후반부":17507,"물자":17508,"대관":17509,"##원지":17510,"생산자":17511,"미쳐":17512,"바우":17513,"저마다":17514,"거둬":17515,"엉망":17516,"낙하산":17517,"##AA":17518,"비누":17519,"돌아서":17520,"선인":17521,"##희정":17522,"이뤄져야":17523,"종속":17524,"손잡이":17525,"신진":17526,"보직":17527,"글의":17528,"권영":17529,"휠체어":17530,"늘어난다":17531,"꼼짝":17532,"연임":17533,"재가":17534,"돌아섰":17535,"ab":17536,"##ement":17537,"##ix":17538,"홍삼":17539,"살펴볼":17540,"원산지":17541,"준우":17542,"드릴게요":17543,"도무지":17544,"분에":17545,"소생":17546,"달리기":17547,"하룻밤":17548,"내려다보":17549,"그물":17550,"##iet":17551,"기치":17552,"경희대":17553,"수박":17554,"서강":17555,"율의":17556,"지평":17557,"입안":17558,"미약":17559,"##외과":17560,"편향":17561,"자릿":17562,"PP":17563,"베풀":17564,"벌리":17565,"교보":17566,"목걸이":17567,"즉위":17568,"코오":17569,"##아먹":17570,"메이드":17571,"127":17572,"강인":17573,"계몽":17574,"제각":17575,"아사히":17576,"결핍":17577,"동산":17578,"덧붙여":17579,"인분":17580,"강했":17581,"반장":17582,"디테일":17583,"수식":17584,"소홀히":17585,"##uk":17586,"점거":17587,"프로그래":17588,"황교안":17589,"입당":17590,"히스":17591,"도끼":17592,"꼽혔":17593,"였음":17594,"위쪽":17595,"명과":17596,"기관장":17597,"펼쳐진":17598,"##쿠스":17599,"돌아간":17600,"157":17601,"즐겼":17602,"자구":17603,"파편":17604,"지역인":17605,"털어":17606,"##버거":17607,"문턱":17608,"##깨비":17609,"남아프리카":17610,"RO":17611,"근간":17612,"아아":17613,"##상스":17614,"체조":17615,"트리플":17616,"소이":17617,"우루":17618,"남구":17619,"보인다고":17620,"가닥":17621,"요르":17622,"Ed":17623,"시합":17624,"일쑤":17625,"신음":17626,"MA":17627,"선과":17628,"차체":17629,"아무개":17630,"CO":17631,"육수":17632,"se":17633,"Br":17634,"마카":17635,"자각":17636,"하사":17637,"척의":17638,"변론":17639,"파헤":17640,"애쓰":17641,"택했":17642,"배부":17643,"나뉜다":17644,"실크":17645,"태아":17646,"강등":17647,"너스":17648,"응급실":17649,"경악":17650,"윤상":17651,"페루":17652,"폭주":17653,"버지니아":17654,"요트":17655,"경색":17656,"선글라스":17657,"정중":17658,"분식":17659,"갖가지":17660,"속출":17661,"독감":17662,"캐시":17663,"타카":17664,"자생":17665,"악순환":17666,"탈세":17667,"AC":17668,"탄산":17669,"어학":17670,"의존도":17671,"합시다":17672,"##막이":17673,"제니":17674,"아비":17675,"종자":17676,"##포드":17677,"우파":17678,"건넸":17679,"##케이":17680,"성산":17681,"유격":17682,"##ology":17683,"주공":17684,"##셔리":17685,"달려들":17686,"강전":17687,"싸워":17688,"##필더":17689,"##rid":17690,"막연":17691,"럭셔리":17692,"미드필더":17693,"각계":17694,"착취":17695,"찾아갔":17696,"군포":17697,"옥의":17698,"##교도":17699,"고모":17700,"##aily":17701,"탈바꿈":17702,"절로":17703,"당면":17704,"들어설":17705,"화질":17706,"파란색":17707,"프로세서":17708,"177":17709,"부를":17710,"제지":17711,"반가":17712,"자처":17713,"베타":17714,"##전지":17715,"점진":17716,"커진":17717,"출발점":17718,"어용":17719,"개수":17720,"임산부":17721,"북동":17722,"##ade":17723,"지만은":17724,"리퍼":17725,"다우":17726,"달러화":17727,"만난다":17728,"스탈":17729,"셔도":17730,"##질러":17731,"따름":17732,"왜냐면":17733,"평상시":17734,"지나갔":17735,"코오롱":17736,"두렵":17737,"칼라":17738,"가디언":17739,"혼돈":17740,"사라질":17741,"미셸":17742,"영도":17743,"활발히":17744,"까마":17745,"얻어":17746,"리어":17747,"쾌감":17748,"앞쪽":17749,"##다드":17750,"누이":17751,"친해":17752,"개그맨":17753,"무라":17754,"해저":17755,"매스":17756,"LNG":17757,"처우":17758,"웅진":17759,"질타":17760,"증강":17761,"분홍":17762,"염소":17763,"수퍼":17764,"종북":17765,"지녔":17766,"피싱":17767,"온전히":17768,"##구멍":17769,"경상북도":17770,"저쪽":17771,"건축가":17772,"당혹":17773,"그래프":17774,"경산":17775,"역과":17776,"저거":17777,"르네상스":17778,"##리나":17779,"모셔":17780,"들려주":17781,"롯데월드":17782,"트로피":17783,"올스타":17784,"정재":17785,"토요":17786,"시뮬레이션":17787,"##합니다":17788,"급변":17789,"정주":17790,"##ank":17791,"단추":17792,"테일러":17793,"갈래":17794,"부로":17795,"##중국해":17796,"갑옷":17797,"탈피":17798,"약사":17799,"사법부":17800,"앨런":17801,"구부":17802,"PM":17803,"방송인":17804,"모처럼":17805,"팔려":17806,"달아나":17807,"시어머니":17808,"시마":17809,"여진":17810,"쳐서":17811,"1966":17812,"음향":17813,"##ins":17814,"낙태":17815,"##차림":17816,"티베트":17817,"잉여":17818,"##자유":17819,"임차인":17820,"맞대결":17821,"존나":17822,"##뜨릴":17823,"##ans":17824,"훔치":17825,"##거지":17826,"맛볼":17827,"오크":17828,"깊숙이":17829,"거취":17830,"Dav":17831,"##나가":17832,"##ris":17833,"대지진":17834,"시종":17835,"여관":17836,"다국적":17837,"담의":17838,"대우건설":17839,"명제":17840,"연기자":17841,"도왔":17842,"1961":17843,"졸라":17844,"EP":17845,"156":17846,"배낭":17847,"실업자":17848,"IBM":17849,"내셔널":17850,"px":17851,"소란":17852,"끌어들이":17853,"헬리":17854,"저번":17855,"배트":17856,"##erv":17857,"허구":17858,"사용량":17859,"냄비":17860,"변이":17861,"이어받":17862,"온의":17863,"Univers":17864,"모릅니다":17865,"탈레":17866,"쉼터":17867,"##케인":17868,"로렌":17869,"원치":17870,"박경":17871,"사회학":17872,"##여대":17873,"천문학":17874,"알선":17875,"전염병":17876,"결여":17877,"##커트":17878,"여객기":17879,"거요":17880,"강철":17881,"개교":17882,"마누":17883,"인수위":17884,"발산":17885,"설령":17886,"원자로":17887,"##11":17888,"번은":17889,"좌익":17890,"비엔":17891,"124":17892,"라이더":17893,"모터쇼":17894,"##언스":17895,"공채":17896,"##버섯":17897,"144":17898,"두꺼운":17899,"신주":17900,"묘한":17901,"앞섰":17902,"디바":17903,"생소":17904,"세속":17905,"헤럴드":17906,"##튿날":17907,"진흙":17908,"균형발전":17909,"가결":17910,"퇴직금":17911,"수자원":17912,"욕실":17913,"##필드":17914,"오타":17915,"장만":17916,"미성년자":17917,"충실히":17918,"MM":17919,"이튿날":17920,"당한다":17921,"##숭아":17922,"깨우":17923,"요리사":17924,"건대":17925,"갈리":17926,"성완":17927,"상응":17928,"혈당":17929,"유치에":17930,"라우":17931,"도로공사":17932,"구르":17933,"퍼스트":17934,"목격자":17935,"종가":17936,"##살렘":17937,"계셨":17938,"##ett":17939,"여행지":17940,"개막식":17941,"만끽":17942,"아오":17943,"치중":17944,"##루살렘":17945,"성기":17946,"추기경":17947,"모건":17948,"프랑크":17949,"대면":17950,"VIP":17951,"거쳤":17952,"김구":17953,"놀랄":17954,"양면":17955,"혼잡":17956,"헤어지":17957,"실에":17958,"선풍":17959,"추신수":17960,"신곡":17961,"##ull":17962,"##재판":17963,"##eth":17964,"힘쓰":17965,"##BM":17966,"반입":17967,"##퇴직":17968,"신데":17969,"든가":17970,"스톱":17971,"청이":17972,"##클리":17973,"불문":17974,"무더기":17975,"##EN":17976,"복선":17977,"일보":17978,"넘어갔":17979,"형법":17980,"챙겼":17981,"들판":17982,"아우르":17983,"예견":17984,"이양":17985,"구매자":17986,"스릴":17987,"신청자":17988,"##축구":17989,"벌인다":17990,"마마":17991,"##시브":17992,"기념일":17993,"견지":17994,"구한":17995,"두피":17996,"##투자":17997,"상부":17998,"연탄":17999,"##과이":18000,"하소연":18001,"마니아":18002,"용돈":18003,"내린다":18004,"담장":18005,"시간대":18006,"복판":18007,"##들였":18008,"##이지리아":18009,"맞췄":18010,"니트":18011,"SKT":18012,"물려받":18013,"위배":18014,"성완종":18015,"연회":18016,"한양대":18017,"커져":18018,"내몰":18019,"과거사":18020,"전전":18021,"지날":18022,"수녀":18023,"마린":18024,"162":18025,"연행":18026,"물리치":18027,"사카":18028,"나이지리아":18029,"능가":18030,"엎드":18031,"차등":18032,"엘프":18033,"키보드":18034,"칼날":18035,"모노":18036,"어울려":18037,"활주":18038,"##면적":18039,"경기력":18040,"구했":18041,"폭파":18042,"데이터베이스":18043,"나폴레":18044,"아세안":18045,"지탱":18046,"열의":18047,"##수산부":18048,"직격":18049,"준결승":18050,"증명서":18051,"뮤지션":18052,"##관광":18053,"가위":18054,"김부":18055,"모여서":18056,"##지오":18057,"내실":18058,"중량":18059,"세일즈":18060,"도우미":18061,"단단히":18062,"나열":18063,"순방":18064,"인방":18065,"해인":18066,"##수엘라":18067,"감금":18068,"고품":18069,"세가":18070,"바이올린":18071,"왕성":18072,"##악산":18073,"타로":18074,"융자":18075,"국공":18076,"숙명":18077,"젤리":18078,"드루":18079,"아메리칸":18080,"잔혹":18081,"미숙":18082,"280":18083,"어느덧":18084,"묵묵히":18085,"사절":18086,"신안":18087,"몰려들":18088,"목회":18089,"##기부":18090,"무실":18091,"유수":18092,"평판":18093,"생겨났":18094,"심부":18095,"132":18096,"탈레반":18097,"1946":18098,"으실":18099,"##불리":18100,"모텔":18101,"바닷물":18102,"한시":18103,"배움":18104,"죄책":18105,"최영":18106,"엔지니어링":18107,"품격":18108,"일깨":18109,"##에스":18110,"색소":18111,"이화여대":18112,"꾀하":18113,"이호":18114,"육지":18115,"운임":18116,"##ft":18117,"본체":18118,"거스":18119,"현미":18120,"신생아":18121,"스튜어":18122,"일감":18123,"126":18124,"요가":18125,"하얗":18126,"요르단":18127,"137":18128,"유방암":18129,"정사":18130,"외고":18131,"죄인":18132,"라가":18133,"이관":18134,"Press":18135,"##시대":18136,"왔어요":18137,"##lic":18138,"클리닉":18139,"##다녔":18140,"##다이":18141,"서리":18142,"마땅히":18143,"##구치":18144,"온난":18145,"##앤젤레스":18146,"당나라":18147,"햄버거":18148,"리프":18149,"불화":18150,"찔러":18151,"베네수엘라":18152,"##짜기":18153,"168":18154,"골목길":18155,"대내":18156,"이대호":18157,"시즈":18158,"모른다고":18159,"돌격":18160,"레바":18161,"##pe":18162,"트윈":18163,"로스앤젤레스":18164,"한성":18165,"난감":18166,"들려왔":18167,"영국인":18168,"기울였":18169,"만연":18170,"시경":18171,"변모":18172,"출원":18173,"가솔":18174,"엣지":18175,"##무늬":18176,"세워진":18177,"루카":18178,"칼슘":18179,"테러리스트":18180,"방수":18181,"사우디아":18182,"##ower":18183,"기나":18184,"비평가":18185,"병합":18186,"수에":18187,"악명":18188,"고법":18189,"##12":18190,"무르":18191,"옮김":18192,"##부모":18193,"교내":18194,"양말":18195,"끄덕였":18196,"염원":18197,"자루":18198,"xx":18199,"코노":18200,"브라이언":18201,"슈트":18202,"드로":18203,"변질":18204,"나폴레옹":18205,"사르":18206,"상설":18207,"계수":18208,"콜롬비아":18209,"터무니":18210,"152":18211,"서인":18212,"UAE":18213,"요란":18214,"다발":18215,"아랑":18216,"##수아":18217,"인해서":18218,"입주자":18219,"포화":18220,"펜션":18221,"개막전":18222,"Man":18223,"더러운":18224,"GT":18225,"뇌졸":18226,"좁혀":18227,"330":18228,"끌어안":18229,"갯벌":18230,"mc":18231,"장도":18232,"총독":18233,"##장면":18234,"성직자":18235,"##르도":18236,"보가":18237,"허술":18238,"코엑스":18239,"경합":18240,"물기":18241,"우동":18242,"경마":18243,"자작":18244,"무승부":18245,"파이낸셜":18246,"만을":18247,"mar":18248,"펼친다":18249,"지금껏":18250,"정차":18251,"##베리아":18252,"아드":18253,"초조":18254,"사우디아라비아":18255,"아찔":18256,"365":18257,"가두":18258,"##세기":18259,"순매도":18260,"휴업":18261,"320":18262,"역점":18263,"존엄":18264,"황우":18265,"털어놨":18266,"박준":18267,"##ll":18268,"어필":18269,"배드":18270,"##ife":18271,"종편":18272,"청각":18273,"막장":18274,"매달려":18275,"돌려받":18276,"##바탕":18277,"기색":18278,"치사":18279,"쇠퇴":18280,"움켜":18281,"은평":18282,"클렌징":18283,"어기":18284,"배열":18285,"내비쳤":18286,"정연":18287,"농단":18288,"##모로":18289,"##갈이":18290,"진행자":18291,"##amp":18292,"하프":18293,"139":18294,"창의력":18295,"면밀히":18296,"수락":18297,"세밀":18298,"##보냈":18299,"프린터":18300,"상여":18301,"마포구":18302,"사슴":18303,"소시":18304,"기저귀":18305,"맛나":18306,"대법원장":18307,"분대":18308,"아래쪽":18309,"놈의":18310,"로이":18311,"중남미":18312,"133":18313,"해양수산부":18314,"계획서":18315,"월등":18316,"업주":18317,"프로필":18318,"한몫":18319,"##날드":18320,"라운":18321,"운영비":18322,"최고위":18323,"올드":18324,"수용소":18325,"여주인":18326,"개표":18327,"통틀":18328,"##oon":18329,"##ool":18330,"무너졌":18331,"김우":18332,"미녀":18333,"서너":18334,"징역형":18335,"알아내":18336,"그려진":18337,"분실":18338,"270":18339,"NG":18340,"##미안":18341,"후인":18342,"번거":18343,"케네디":18344,"맞벌이":18345,"문학상":18346,"자행":18347,"공허":18348,"태양의":18349,"납니다":18350,"되새":18351,"치켜":18352,"몰린":18353,"164":18354,"간다고":18355,"성북":18356,"##올라":18357,"지나간":18358,"물러났":18359,"정현":18360,"무형":18361,"##무장":18362,"선착순":18363,"기내":18364,"속삭":18365,"불거지":18366,"영지":18367,"원점":18368,"##라기":18369,"해낼":18370,"선보여":18371,"무공":18372,"톡톡히":18373,"자백":18374,"작물":18375,"기다려야":18376,"짬뽕":18377,"투여":18378,"메르켈":18379,"간절히":18380,"퍼부":18381,"과격":18382,"커스":18383,"부추기":18384,"데스크":18385,"일어난다":18386,"반죽":18387,"온전":18388,"##들목":18389,"말려":18390,"후문":18391,"##레스테":18392,"BB":18393,"호황":18394,"매몰":18395,"주어진다":18396,"센트럴":18397,"##elf":18398,"김영란":18399,"##나항공":18400,"월평균":18401,"153":18402,"만져":18403,"원룸":18404,"대나무":18405,"연정":18406,"나들목":18407,"바울":18408,"아깝":18409,"애호":18410,"아시아나항공":18411,"내려왔":18412,"숙성":18413,"##더슨":18414,"교육비":18415,"취득세":18416,"담백":18417,"소소":18418,"136":18419,"##ase":18420,"존속":18421,"골퍼":18422,"빌미":18423,"##닐라":18424,"##암동":18425,"강기":18426,"사대":18427,"기다릴":18428,"불씨":18429,"의료비":18430,"##토스":18431,"니코":18432,"이쁜":18433,"우주선":18434,"꼬박":18435,"플라이":18436,"쳐들":18437,"하동":18438,"선뜻":18439,"군민":18440,"스테이":18441,"##LC":18442,"##그레":18443,"씁쓸":18444,"해발":18445,"휘둘":18446,"우측":18447,"뒷면":18448,"자막":18449,"피했":18450,"이재명":18451,"FT":18452,"그친":18453,"병실":18454,"깨달음":18455,"길드":18456,"중앙선":18457,"스쳐":18458,"예루살렘":18459,"영업자":18460,"계약직":18461,"는데다":18462,"1400":18463,"엇갈리":18464,"지쳐":18465,"스케이팅":18466,"창간":18467,"피겨":18468,"독주":18469,"계류":18470,"3500":18471,"공범":18472,"타고난":18473,"이빨":18474,"##마르":18475,"성벽":18476,"##경원":18477,"익혀":18478,"망하":18479,"BC":18480,"거란":18481,"김미":18482,"태권도":18483,"정부군":18484,"시책":18485,"미러":18486,"아이러":18487,"방콕":18488,"웃돌":18489,"김한길":18490,"카자":18491,"##VD":18492,"여러모로":18493,"미친다":18494,"살균제":18495,"149":18496,"전경련":18497,"##삼성":18498,"관리법":18499,"##숨에":18500,"단숨에":18501,"마스":18502,"개인전":18503,"준우승":18504,"자손":18505,"황태":18506,"##yn":18507,"미르":18508,"할부":18509,"##레스테롤":18510,"##oth":18511,"스타크":18512,"어이없":18513,"편집자":18514,"남학생":18515,"한파":18516,"jpg":18517,"폴리스":18518,"치부":18519,"호세":18520,"광교":18521,"여중":18522,"그랑":18523,"무어":18524,"복종":18525,"제게":18526,"거주자":18527,"거라":18528,"콜레스테롤":18529,"브리지":18530,"방황":18531,"정준":18532,"##연맹":18533,"관직":18534,"모음":18535,"살릴":18536,"굶주":18537,"관광공사":18538,"그랜":18539,"이완구":18540,"초라":18541,"찾아보기":18542,"김세":18543,"##즈키":18544,"적십자":18545,"치러진":18546,"의논":18547,"고질":18548,"민법":18549,"VS":18550,"간소":18551,"헤아":18552,"올라간다":18553,"1949":18554,"WSJ":18555,"무색":18556,"찬스":18557,"##러기":18558,"##up":18559,"교단":18560,"여객선":18561,"감리":18562,"루프":18563,"헬로":18564,"##너무":18565,"승강장":18566,"케냐":18567,"부가가치":18568,"##ike":18569,"스냅":18570,"탁자":18571,"무너진":18572,"노래방":18573,"구직":18574,"태종":18575,"##oul":18576,"##정식":18577,"가성":18578,"편법":18579,"연구회":18580,"양손":18581,"체내":18582,"윌슨":18583,"서운":18584,"입소문":18585,"불복":18586,"고함":18587,"죄책감":18588,"직속":18589,"발전기":18590,"퇴치":18591,"정액":18592,"안목":18593,"다케":18594,"에티":18595,"ELS":18596,"옥스":18597,"셔틀":18598,"기본법":18599,"케빈":18600,"마주치":18601,"##me":18602,"Le":18603,"고운":18604,"사수":18605,"즐거워":18606,"몸통":18607,"어버":18608,"260":18609,"김문수":18610,"나와야":18611,"박기":18612,"굴욕":18613,"어쩐":18614,"##사키":18615,"찌푸":18616,"스러울":18617,"가솔린":18618,"유화":18619,"불러일으키":18620,"루머":18621,"하우":18622,"뱅킹":18623,"펌프":18624,"군사력":18625,"전셋":18626,"천황":18627,"쏘나타":18628,"거들":18629,"코팅":18630,"팬택":18631,"##트릭":18632,"재검":18633,"수인":18634,"계명":18635,"NAS":18636,"지방세":18637,"신용카드":18638,"DMZ":18639,"추론":18640,"163":18641,"##장구":18642,"138":18643,"##제리":18644,"국보":18645,"아리스":18646,"내려온":18647,"주임":18648,"상큼":18649,"심신":18650,"항일":18651,"각질":18652,"저명":18653,"##ave":18654,"루터":18655,"반항":18656,"꼭대기":18657,"만족도":18658,
[...]
